{
  "version": "1.0",
  "truncation": null,
  "padding": null,
  "added_tokens": [
    {
      "id": 0,
      "content": "<pad>",
      "single_word": false,
      "lstrip": false,
      "rstrip": false,
      "normalized": false,
      "special": true
    },
    {
      "id": 1,
      "content": "<bos>",
      "single_word": false,
      "lstrip": false,
      "rstrip": false,
      "normalized": false,
      "special": true
    },
    {
      "id": 2,
      "content": "<|end|>",
      "single_word": false,
      "lstrip": false,
      "rstrip": false,
      "normalized": false,
      "special": true
    },
    {
      "id": 3,
      "content": "<unk>",
      "single_word": false,
      "lstrip": false,
      "rstrip": false,
      "normalized": false,
      "special": true
    }
  ],
  "normalizer": null,
  "pre_tokenizer": {
    "type": "ByteLevel",
    "add_prefix_space": false,
    "trim_offsets": true,
    "use_regex": true
  },
  "post_processor": {
    "type": "ByteLevel",
    "add_prefix_space": true,
    "trim_offsets": false,
    "use_regex": true
  },
  "decoder": {
    "type": "ByteLevel",
    "add_prefix_space": true,
    "trim_offsets": true,
    "use_regex": true
  },
  "model": {
    "type": "BPE",
    "dropout": null,
    "unk_token": null,
    "continuing_subword_prefix": null,
    "end_of_word_suffix": null,
    "fuse_unk": false,
    "byte_fallback": false,
    "ignore_merges": false,
    "vocab": {
      "<pad>": 0,
      "<bos>": 1,
      "<|end|>": 2,
      "<unk>": 3,
      "!": 4,
      "\"": 5,
      "#": 6,
      "$": 7,
      "%": 8,
      "&": 9,
      "'": 10,
      "(": 11,
      ")": 12,
      "*": 13,
      "+": 14,
      ",": 15,
      "-": 16,
      ".": 17,
      "/": 18,
      "0": 19,
      "1": 20,
      "2": 21,
      "3": 22,
      "4": 23,
      "5": 24,
      "6": 25,
      "7": 26,
      "8": 27,
      "9": 28,
      ":": 29,
      ";": 30,
      "<": 31,
      "=": 32,
      ">": 33,
      "?": 34,
      "@": 35,
      "A": 36,
      "B": 37,
      "C": 38,
      "D": 39,
      "E": 40,
      "F": 41,
      "G": 42,
      "H": 43,
      "I": 44,
      "J": 45,
      "K": 46,
      "L": 47,
      "M": 48,
      "N": 49,
      "O": 50,
      "P": 51,
      "Q": 52,
      "R": 53,
      "S": 54,
      "T": 55,
      "U": 56,
      "V": 57,
      "W": 58,
      "X": 59,
      "Y": 60,
      "Z": 61,
      "[": 62,
      "\\": 63,
      "]": 64,
      "^": 65,
      "_": 66,
      "`": 67,
      "a": 68,
      "b": 69,
      "c": 70,
      "d": 71,
      "e": 72,
      "f": 73,
      "g": 74,
      "h": 75,
      "i": 76,
      "j": 77,
      "k": 78,
      "l": 79,
      "m": 80,
      "n": 81,
      "o": 82,
      "p": 83,
      "q": 84,
      "r": 85,
      "s": 86,
      "t": 87,
      "u": 88,
      "v": 89,
      "w": 90,
      "x": 91,
      "y": 92,
      "z": 93,
      "{": 94,
      "|": 95,
      "}": 96,
      "~": 97,
      "¡": 98,
      "¢": 99,
      "£": 100,
      "¤": 101,
      "¥": 102,
      "¦": 103,
      "§": 104,
      "¨": 105,
      "©": 106,
      "ª": 107,
      "«": 108,
      "¬": 109,
      "®": 110,
      "¯": 111,
      "°": 112,
      "±": 113,
      "²": 114,
      "³": 115,
      "´": 116,
      "µ": 117,
      "¶": 118,
      "·": 119,
      "¸": 120,
      "¹": 121,
      "º": 122,
      "»": 123,
      "¼": 124,
      "½": 125,
      "¾": 126,
      "¿": 127,
      "À": 128,
      "Á": 129,
      "Â": 130,
      "Ã": 131,
      "Ä": 132,
      "Å": 133,
      "Æ": 134,
      "Ç": 135,
      "È": 136,
      "É": 137,
      "Ê": 138,
      "Ë": 139,
      "Ì": 140,
      "Í": 141,
      "Î": 142,
      "Ï": 143,
      "Ð": 144,
      "Ñ": 145,
      "Ò": 146,
      "Ó": 147,
      "Ô": 148,
      "Õ": 149,
      "Ö": 150,
      "×": 151,
      "Ø": 152,
      "Ù": 153,
      "Ú": 154,
      "Û": 155,
      "Ü": 156,
      "Ý": 157,
      "Þ": 158,
      "ß": 159,
      "à": 160,
      "á": 161,
      "â": 162,
      "ã": 163,
      "ä": 164,
      "å": 165,
      "æ": 166,
      "ç": 167,
      "è": 168,
      "é": 169,
      "ê": 170,
      "ë": 171,
      "ì": 172,
      "í": 173,
      "î": 174,
      "ï": 175,
      "ð": 176,
      "ñ": 177,
      "ò": 178,
      "ó": 179,
      "ô": 180,
      "õ": 181,
      "ö": 182,
      "÷": 183,
      "ø": 184,
      "ù": 185,
      "ú": 186,
      "û": 187,
      "ü": 188,
      "ý": 189,
      "þ": 190,
      "ÿ": 191,
      "Ā": 192,
      "ā": 193,
      "Ă": 194,
      "ă": 195,
      "Ą": 196,
      "ą": 197,
      "Ć": 198,
      "ć": 199,
      "Ĉ": 200,
      "ĉ": 201,
      "Ċ": 202,
      "ċ": 203,
      "Č": 204,
      "č": 205,
      "Ď": 206,
      "ď": 207,
      "Đ": 208,
      "đ": 209,
      "Ē": 210,
      "ē": 211,
      "Ĕ": 212,
      "ĕ": 213,
      "Ė": 214,
      "ė": 215,
      "Ę": 216,
      "ę": 217,
      "Ě": 218,
      "ě": 219,
      "Ĝ": 220,
      "ĝ": 221,
      "Ğ": 222,
      "ğ": 223,
      "Ġ": 224,
      "ġ": 225,
      "Ģ": 226,
      "ģ": 227,
      "Ĥ": 228,
      "ĥ": 229,
      "Ħ": 230,
      "ħ": 231,
      "Ĩ": 232,
      "ĩ": 233,
      "Ī": 234,
      "ī": 235,
      "Ĭ": 236,
      "ĭ": 237,
      "Į": 238,
      "į": 239,
      "İ": 240,
      "ı": 241,
      "Ĳ": 242,
      "ĳ": 243,
      "Ĵ": 244,
      "ĵ": 245,
      "Ķ": 246,
      "ķ": 247,
      "ĸ": 248,
      "Ĺ": 249,
      "ĺ": 250,
      "Ļ": 251,
      "ļ": 252,
      "Ľ": 253,
      "ľ": 254,
      "Ŀ": 255,
      "ŀ": 256,
      "Ł": 257,
      "ł": 258,
      "Ń": 259,
      "ar": 260,
      "on": 261,
      "al": 262,
      "te": 263,
      "su": 264,
      "gar": 265,
      "sugar": 266,
      "in": 267,
      "\":": 268,
      "de": 269,
      ",\"": 270,
      "Ġs": 271,
      "ri": 272,
      "con": 273,
      "ta": 274,
      "er": 275,
      "Ġa": 276,
      "ti": 277,
      "ci": 278,
      "ce": 279,
      "Ġ\\": 280,
      "ur": 281,
      "an": 282,
      "Ġc": 283,
      "ins": 284,
      "tains": 285,
      "ate": 286,
      "contains": 287,
      "se": 288,
      "dde": 289,
      "Ġsugar": 290,
      "Ġf": 291,
      "le": 292,
      "tr": 293,
      "ed": 294,
      "fi": 295,
      "at": 296,
      "sugars": 297,
      "Ġp": 298,
      "or": 299,
      "en": 300,
      "dded": 301,
      "ee": 302,
      "ro": 303,
      "ten": 304,
      "la": 305,
      "fal": 306,
      "false": 307,
      "Ġso": 308,
      "ct": 309,
      "ze": 310,
      "wee": 311,
      "Ġ(": 312,
      "weeten": 313,
      "arti": 314,
      "Ġn": 315,
      "cial": 316,
      "il": 317,
      "ficial": 318,
      "artificial": 319,
      "tion": 320,
      "um": 321,
      "weetener": 322,
      "ris": 323,
      "ut": 324,
      "ted": 325,
      "risk": 326,
      "ing": 327,
      "Ġm": 328,
      "Ġo": 329,
      "Ġw": 330,
      "atur": 331,
      "one": 332,
      "Ġadded": 333,
      "],\"": 334,
      "sweetener": 335,
      "\":\"": 336,
      "\":[": 337,
      "atural": 338,
      "cted": 339,
      "tected": 340,
      "detected": 341,
      "red": 342,
      "hi": 343,
      "Ġb": 344,
      "lo": 345,
      "ue": 346,
      "to": 347,
      "si": 348,
      "el": 349,
      "\",\"": 350,
      "None": 351,
      "ho": 352,
      "ru": 353,
      "true": 354,
      "ĠN": 355,
      "ex": 356,
      "Ġg": 357,
      "ent": 358,
      "ient": 359,
      "redient": 360,
      "ol": 361,
      "Ġas": 362,
      "utri": 363,
      "10": 364,
      "lav": 365,
      "ĠA": 366,
      "),": 367,
      "ĠJ": 368,
      "redients": 369,
      "Pro": 370,
      "am": 371,
      "ĠI": 372,
      "Ġto": 373,
      "tal": 374,
      "erv": 375,
      "ĠNutri": 376,
      "ĠNutrition": 377,
      "ĠIn": 378,
      "du": 379,
      "100": 380,
      "ĠAn": 381,
      "duct": 382,
      "ĠIng": 383,
      "Ġserv": 384,
      "Ġserving": 385,
      "SO": 386,
      "yze": 387,
      "Ġrisk": 388,
      "alyze": 389,
      "size": 390,
      "ĠJSO": 391,
      "Product": 392,
      "Ġtotal": 393,
      "ĠAnalyze": 394,
      "ĠIngredients": 395,
      "ĠJSON": 396,
      "ch": 397,
      "di": 398,
      "Ġ-": 399,
      "ana": 400,
      "\":[],\"": 401,
      "Ġoil": 402,
      "lavor": 403,
      "he": 404,
      "alt": 405,
      "cid": 406,
      "Ġflavor": 407,
      "Ġacid": 408,
      "nce": 409,
      "pl": 410,
      "dden": 411,
      "end": 412,
      "natural": 413,
      "vel": 414,
      "\"}": 415,
      ".\"}": 416,
      "<|": 417,
      "added": 418,
      "{\"": 419,
      "|>": 420,
      "Ġ{\"": 421,
      "dence": 422,
      "confi": 423,
      "level": 424,
      "sweeteners": 425,
      "hidden": 426,
      "expl": 427,
      "anation": 428,
      ".\"}<|": 429,
      "confidence": 430,
      "explanation": 431,
      "lour": 432,
      "orn": 433,
      "trate": 434,
      "yru": 435,
      "yrup": 436,
      "Ġsour": 437,
      "ĠC": 438,
      "Ġsyrup": 439,
      "Ġsource": 440,
      "Ġflour": 441,
      "ater": 442,
      "Ġdetected": 443,
      "ĠB": 444,
      "\"],\"": 445,
      "\":[\"": 446,
      "ice": 447,
      "Ġsalt": 448,
      "ic": 449,
      "Ġnatural": 450,
      "ose": 451,
      "Ġv": 452,
      "Ġcorn": 453,
      "th": 454,
      "ly": 455,
      "oc": 456,
      "uice": 457,
      "Ġpo": 458,
      "Ġwater": 459,
      "Ġsoy": 460,
      "Ġle": 461,
      "Ġj": 462,
      "Ġjuice": 463,
      "re": 464,
      "heat": 465,
      ").\"}<|": 466,
      "ean": 467,
      "ĠS": 468,
      "ilk": 469,
      "ry": 470,
      "ane": 471,
      "Ġcon": 472,
      "tar": 473,
      "sp": 474,
      "cen": 475,
      "centrate": 476,
      "alci": 477,
      "Ġmon": 478,
      "Ġconcentrate": 479,
      "ak": 480,
      "ra": 481,
      "alm": 482,
      "Ġri": 483,
      "oz": 484,
      "lu": 485,
      "tra": 486,
      "eg": 487,
      "HI": 488,
      "GH": 489,
      "HIGH": 490,
      "Ġno": 491,
      "dium": 492,
      "hole": 493,
      "olate": 494,
      "Ġstar": 495,
      "Ġmilk": 496,
      "ter": 497,
      "Ġstarch": 498,
      "hosp": 499,
      "ber": 500,
      "xtr": 501,
      "dextr": 502,
      "Ġci": 503,
      "ric": 504,
      "orb": 505,
      "Ġpota": 506,
      "alcium": 507,
      "sium": 508,
      "Ġgum": 509,
      "thin": 510,
      "ride": 511,
      "as": 512,
      "Ġwheat": 513,
      "cithin": 514,
      "Ġlecithin": 515,
      "ĠP": 516,
      "Ġt": 517,
      "Ġ1": 518,
      "ER": 519,
      "hate": 520,
      "hosphate": 521,
      "ssium": 522,
      "ĠF": 523,
      "ine": 524,
      "us": 525,
      "hoc": 526,
      "hocolate": 527,
      "ĠM": 528,
      "oco": 529,
      "Ġpotassium": 530,
      "Ġpro": 531,
      "utter": 532,
      "Ġpalm": 533,
      "pp": 534,
      "Ġex": 535,
      "Ġred": 536,
      "vi": 537,
      "berry": 538,
      "ola": 539,
      "Ġcar": 540,
      "ctose": 541,
      "Ġfru": 542,
      "Ġextra": 543,
      "Ġsources": 544,
      "Ġh": 545,
      "low": 546,
      "Ġin": 547,
      "Ġextract": 548,
      "Ġsodium": 549,
      "Ġwhole": 550,
      "tam": 551,
      "Ġd": 552,
      "Ġi": 553,
      "wn": 554,
      "Ġfd": 555,
      "Ġoz": 556,
      "amin": 557,
      "tric": 558,
      "ac": 559,
      "bean": 560,
      "Ġcitric": 561,
      "gh": 562,
      "rown": 563,
      "Ġbutter": 564,
      "ocoa": 565,
      "oney": 566,
      "Ġsu": 567,
      "gly": 568,
      "cane": 569,
      "Ġse": 570,
      "ble": 571,
      "Ġrice": 572,
      "Ġdi": 573,
      "ul": 574,
      "Ġcocoa": 575,
      "ĠD": 576,
      "it": 577,
      "ated": 578,
      "ceride": 579,
      "glyceride": 580,
      "eta": 581,
      "Ġphosphate": 582,
      "Ġy": 583,
      "ĠG": 584,
      "Ġcane": 585,
      "tein": 586,
      "Ġnon": 587,
      "li": 588,
      "ve": 589,
      "oni": 590,
      "ĠO": 591,
      "da": 592,
      "Ġsoybean": 593,
      "anola": 594,
      "ot": 595,
      "Ġgra": 596,
      "aking": 597,
      "pple": 598,
      "es": 599,
      "egg": 600,
      "iac": 601,
      "Ġniac": 602,
      "Ġniacin": 603,
      "of": 604,
      "wde": 605,
      "anil": 606,
      "fat": 607,
      "ched": 608,
      "Ġfructose": 609,
      "Ġegg": 610,
      "Ġmal": 611,
      "lf": 612,
      "Ġcalcium": 613,
      "mon": 614,
      "Ġchocolate": 615,
      "anilla": 616,
      "Ġla": 617,
      "so": 618,
      "dextrose": 619,
      "ĠL": 620,
      "hiamin": 621,
      "ĠW": 622,
      "ced": 623,
      "Ġ6": 624,
      "Ġfl": 625,
      "Ġpowde": 626,
      "Ġthiamin": 627,
      "bof": 628,
      "lavin": 629,
      "Ġribof": 630,
      "Ġriboflavin": 631,
      "tur": 632,
      "Ġen": 633,
      "AT": 634,
      "DER": 635,
      "MO": 636,
      "Ġartificial": 637,
      "ATE": 638,
      "DERATE": 639,
      "MODERATE": 640,
      ");": 641,
      "fied": 642,
      "Ġsoda": 643,
      "un": 644,
      "Ġpe": 645,
      "Ġvi": 646,
      "Ġveg": 647,
      "uced": 648,
      "ultur": 649,
      "ron": 650,
      "Ġfol": 651,
      "etable": 652,
      "Ġfolic": 653,
      "Ġmono": 654,
      "dextrin": 655,
      "Ġiron": 656,
      "zed": 657,
      "tamin": 658,
      "Ġreduced": 659,
      "pi": 660,
      "ream": 661,
      "Ġpowder": 662,
      "Ġbaking": 663,
      "Ġvegetable": 664,
      "Ġsorb": 665,
      "Ġmononi": 666,
      "Ġmononitrate": 667,
      "Ġor": 668,
      "Ġoat": 669,
      "high": 670,
      "Ġvitamin": 671,
      "me": 672,
      "yd": 673,
      "Ġprotein": 674,
      "Ġpy": 675,
      "Ġ4": 676,
      "odi": 677,
      "ame": 678,
      "Ġvanilla": 679,
      "Ġsweetener": 680,
      "Ġgrain": 681,
      "Ġcanola": 682,
      "VER": 683,
      "VERY": 684,
      "Ġal": 685,
      "tive": 686,
      "lue": 687,
      "Ġch": 688,
      "ydro": 689,
      "Ġcultur": 690,
      "odified": 691,
      "Ġmodified": 692,
      "Ġing": 693,
      "Ġbrown": 694,
      "bon": 695,
      "ous": 696,
      "todextrin": 697,
      "sulf": 698,
      "Ġace": 699,
      "ley": 700,
      "sulfame": 701,
      "hey": 702,
      "oo": 703,
      "Ġhydro": 704,
      "clu": 705,
      "Ġ5": 706,
      "ĠK": 707,
      "Ġinclu": 708,
      "ge": 709,
      "Ġnot": 710,
      "Ġk": 711,
      "\\\"": 712,
      "bvi": 713,
      "Ġli": 714,
      "des": 715,
      "Ġ\\\"": 716,
      "Ġnam": 717,
      "Ġobvi": 718,
      "ously": 719,
      "Ġincludes": 720,
      "Ġnamed": 721,
      "Ġobviously": 722,
      "tate": 723,
      "Ġpur": 724,
      "eanut": 725,
      "hite": 726,
      "ott": 727,
      "Ġmonoglyceride": 728,
      "Ġro": 729,
      "ĠH": 730,
      "anth": 731,
      "Ġwhey": 732,
      "riched": 733,
      "FE": 734,
      "AFE": 735,
      "No": 736,
      "SAFE": 737,
      "Ġcarbon": 738,
      "Ġ2": 739,
      "ĠBar": 740,
      "ocon": 741,
      "Ġenriched": 742,
      "oconut": 743,
      "cr": 744,
      "Ġhoney": 745,
      "flow": 746,
      "flower": 747,
      "ox": 748,
      "Ġx": 749,
      "olor": 750,
      "sodium": 751,
      "st": 752,
      "loride": 753,
      "oca": 754,
      "\\\".\"}<|": 755,
      "Ġdextrose": 756,
      "av": 757,
      "pk": 758,
      "wheat": 759,
      "anthan": 760,
      "Ġxanthan": 761,
      "Ġcream": 762,
      "alose": 763,
      "tapi": 764,
      "Ġcolor": 765,
      "cralose": 766,
      "tapioca": 767,
      "ĠT": 768,
      "ĠĊ": 769,
      "Ġblue": 770,
      "traw": 771,
      "ast": 772,
      "Ġsea": 773,
      "ree": 774,
      "ottle": 775,
      "trawberry": 776,
      "ay": 777,
      "ĠChocolate": 778,
      "Ġpuree": 779,
      "nflower": 780,
      "Ġglu": 781,
      "ocalcium": 782,
      "ĠBottle": 783,
      "Ġlemon": 784,
      "Ġsunflower": 785,
      "uri": 786,
      "arley": 787,
      "'s": 788,
      "Ġsweeteners": 789,
      "corb": 790,
      "ĠR": 791,
      "ellow": 792,
      "cer": 793,
      "ern": 794,
      "ke": 795,
      "Ġyellow": 796,
      "ĠY": 797,
      "Ġapple": 798,
      "urt": 799,
      "aste": 800,
      "ruit": 801,
      "Ġkern": 802,
      "Ġkernel": 803,
      "Ġ&": 804,
      "Ġgly": 805,
      "corn": 806,
      "pe": 807,
      "Ġbarley": 808,
      "inegar": 809,
      "Ġcitrate": 810,
      "eese": 811,
      "Ġwhite": 812,
      "og": 813,
      "Ġvinegar": 814,
      "res": 815,
      "Ġmonocalcium": 816,
      "Ġsp": 817,
      "ogurt": 818,
      "nutri": 819,
      "ran": 820,
      "nutritive": 821,
      "phosphate": 822,
      "rid": 823,
      "chloride": 824,
      "Ġhydrochloride": 825,
      "led": 826,
      "ĠBre": 827,
      "llu": 828,
      "yl": 829,
      "Ġgu": 830,
      "corbic": 831,
      "ried": 832,
      "Ġpeanut": 833,
      "Ġsorbate": 834,
      "Ġtapioca": 835,
      "len": 836,
      "qu": 837,
      "ĠV": 838,
      "Ġcoconut": 839,
      "Ġacesulfame": 840,
      "ood": 841,
      "ap": 842,
      "Ġdried": 843,
      "mal": 844,
      "ake": 845,
      "honey": 846,
      "urized": 847,
      "asteurized": 848,
      "erol": 849,
      "Ġdiglyceride": 850,
      "ff": 851,
      "Ġe": 852,
      "Ġ40": 853,
      "Ġchi": 854,
      "Ġbean": 855,
      "ix": 856,
      "oly": 857,
      "Ġascorbic": 858,
      "Ġcheese": 859,
      "Ġguar": 860,
      "ferol": 861,
      "alciferol": 862,
      "ĠE": 863,
      "tol": 864,
      "ad": 865,
      "Ġfruit": 866,
      "Ġpyrid": 867,
      "oxine": 868,
      "Ġpyridoxine": 869,
      "id": 870,
      "ond": 871,
      "almond": 872,
      "lled": 873,
      "Ġcultured": 874,
      "ck": 875,
      "12": 876,
      "brown": 877,
      "ctin": 878,
      "Ġpectin": 879,
      "ab": 880,
      "ded": 881,
      "Ġalmond": 882,
      "Ġdate": 883,
      "Ġglycer": 884,
      "artam": 885,
      "ening": 886,
      "Ġleav": 887,
      "Ġthe": 888,
      "artame": 889,
      "Ġleavening": 890,
      "âĦ": 891,
      "ĠYogurt": 892,
      "âĦ¢": 893,
      "sorb": 894,
      "Ġmalted": 895,
      "ĠBars": 896,
      "Ġgluten": 897,
      "Ġhigh": 898,
      "via": 899,
      "apple": 900,
      "ki": 901,
      "tevia": 902,
      "rophosphate": 903,
      "ĠNatural": 904,
      "amel": 905,
      "Ġpyrophosphate": 906,
      "itate": 907,
      "lose": 908,
      "Ġpalmitate": 909,
      "Ġmaltodextrin": 910,
      "fruit": 911,
      "rel": 912,
      "Ġce": 913,
      "ĠLi": 914,
      "aro": 915,
      "inn": 916,
      "Ġpoly": 917,
      "Ġprovi": 918,
      "Ġingredient": 919,
      "Ġingredients": 920,
      "Ġlist": 921,
      "related": 922,
      "Ġprovided": 923,
      "calciferol": 924,
      "solate": 925,
      "Ġchole": 926,
      "amon": 927,
      "innamon": 928,
      "Ġcholecalciferol": 929,
      "kal": 930,
      "Ġun": 931,
      "Ġisolate": 932,
      "ĠPro": 933,
      "arab": 934,
      "Ġca": 935,
      "ark": 936,
      "Ġseed": 937,
      "Ġcarbonated": 938,
      "ached": 939,
      "ĠWater": 940,
      "llulose": 941,
      "cus": 942,
      "nt": 943,
      "bal": 944,
      "is": 945,
      "ized": 946,
      "water": 947,
      "yan": 948,
      "Ġ8": 949,
      "tered": 950,
      "sucralose": 951,
      "Ġcyan": 952,
      "Ġcyanoco": 953,
      "Ġan": 954,
      "Ġalkal": 955,
      "Ġcyanocobal": 956,
      "ĠMix": 957,
      "Ġspice": 958,
      "Ġalkalized": 959,
      "..": 960,
      "maltodextrin": 961,
      "cur": 962,
      "Ġcyanocobalamin": 963,
      "Ġ12": 964,
      "Ġcaramel": 965,
      "Ġculture": 966,
      "iber": 967,
      "enz": 968,
      "asp": 969,
      "ery": 970,
      "Ġ16": 971,
      "Ġdisodium": 972,
      "Ġcellulose": 973,
      "ĠProtein": 974,
      "enzo": 975,
      "ring": 976,
      "Ġbenzo": 977,
      "Ġglycerin": 978,
      "tic": 979,
      "milk": 980,
      "Ġ3": 981,
      "east": 982,
      "ou": 983,
      "sse": 984,
      "Ġ10": 985,
      "ĠJuice": 986,
      "ĠFro": 987,
      "Ġlactose": 988,
      "Ġbenzoate": 989,
      "gin": 990,
      "Ġfiber": 991,
      "eal": 992,
      "ĠButter": 993,
      "Ġcontains": 994,
      "anana": 995,
      "locus": 996,
      "Ġyeast": 997,
      "locust": 998,
      "lic": 999,
      "Ġlocust": 1000,
      "Ġstrawberry": 1001,
      "weetened": 1002,
      "Ġoc": 1003,
      "Ġsulf": 1004,
      "Ġsulfate": 1005,
      "erry": 1006,
      "lend": 1007,
      "Ġpre": 1008,
      "yme": 1009,
      "Ġra": 1010,
      "Ġfood": 1011,
      "Ġmay": 1012,
      "Ġbe": 1013,
      "olasse": 1014,
      "curring": 1015,
      "Ġoccurring": 1016,
      "Ġfla": 1017,
      "Ġgrape": 1018,
      "Ġlac": 1019,
      "sorbate": 1020,
      "Ġpolysorbate": 1021,
      "ty": 1022,
      "ver": 1023,
      "sent": 1024,
      "Ġsugars": 1025,
      "Ġfil": 1026,
      "Ġmolasse": 1027,
      "ĠSp": 1028,
      "ĠPan": 1029,
      "ĠNaturally": 1030,
      "Ġpresent": 1031,
      "Ġgar": 1032,
      "Ġfat": 1033,
      "ink": 1034,
      "Ġ60": 1035,
      "Ġgarlic": 1036,
      "ide": 1037,
      "Ġpasteurized": 1038,
      "weet": 1039,
      "Ġcarbonate": 1040,
      "33": 1041,
      "ba": 1042,
      "mi": 1043,
      "zyme": 1044,
      "Ġmalt": 1045,
      "ĠStrawberry": 1046,
      "Ġpotato": 1047,
      "Ġenzyme": 1048,
      "Ġblend": 1049,
      "fast": 1050,
      "Ġoni": 1051,
      "akfast": 1052,
      "Ġonion": 1053,
      "zen": 1054,
      "Ġcinnamon": 1055,
      "ĠOat": 1056,
      "ĠBreakfast": 1057,
      "seed": 1058,
      "arabic": 1059,
      "ace": 1060,
      "rink": 1061,
      "ĠFrozen": 1062,
      "acesulfame": 1063,
      "sweetened": 1064,
      "Ġarabic": 1065,
      "Ġsucralose": 1066,
      "ĠCan": 1067,
      "Ġfiltered": 1068,
      "ie": 1069,
      "ranola": 1070,
      "ĠMar": 1071,
      "soy": 1072,
      "aspartame": 1073,
      "stevia": 1074,
      "ĠBread": 1075,
      "ĠPe": 1076,
      "Ġacetate": 1077,
      "ag": 1078,
      "ach": 1079,
      "caro": 1080,
      "ling": 1081,
      "nat": 1082,
      "po": 1083,
      "Ġsorbic": 1084,
      "kim": 1085,
      "natto": 1086,
      "gen": 1087,
      "hew": 1088,
      "Ġblueberry": 1089,
      "pper": 1090,
      "gg": 1091,
      "hip": 1092,
      "ph": 1093,
      "Ġfro": 1094,
      "ĠCh": 1095,
      "sti": 1096,
      "pion": 1097,
      "caroten": 1098,
      "inate": 1099,
      "ĠSu": 1100,
      "Ġpropion": 1101,
      "ĠOr": 1102,
      "Ġannatto": 1103,
      "carotene": 1104,
      "Ġpropionate": 1105,
      "ai": 1106,
      "cor": 1107,
      "mo": 1108,
      "ne": 1109,
      "Ġbeta": 1110,
      "Con": 1111,
      "gan": 1112,
      "Ġinver": 1113,
      "ĠGra": 1114,
      "Ġlact": 1115,
      "reek": 1116,
      "Ġlactic": 1117,
      "ĠCans": 1118,
      "ĠOrgan": 1119,
      "Contains": 1120,
      "ĠOrganic": 1121,
      "baking": 1122,
      "emon": 1123,
      "icing": 1124,
      "Ġdry": 1125,
      "ĠDrink": 1126,
      "Ġrolled": 1127,
      "try": 1128,
      "ĠAl": 1129,
      "ester": 1130,
      "ĠLemon": 1131,
      "Ġcase": 1132,
      "palm": 1133,
      "Ġlow": 1134,
      "horic": 1135,
      "hosphoric": 1136,
      "Ġmalic": 1137,
      "Ġlowfat": 1138,
      "mar": 1139,
      "tard": 1140,
      "ustard": 1141,
      "ket": 1142,
      "16": 1143,
      "cro": 1144,
      "ow": 1145,
      "arm": 1146,
      "ereal": 1147,
      "Ġphosphoric": 1148,
      "rot": 1149,
      "Ġsoli": 1150,
      "ĠFree": 1151,
      "ranberry": 1152,
      "eryth": 1153,
      "crose": 1154,
      "Ġsolid": 1155,
      "aff": 1156,
      "eine": 1157,
      "ith": 1158,
      "rigin": 1159,
      "ĠCake": 1160,
      "Ġbuttermilk": 1161,
      "ĠOrigin": 1162,
      "ĠEn": 1163,
      "ĠOriginal": 1164,
      "25": 1165,
      "ative": 1166,
      "ĠKid": 1167,
      "Ġliqu": 1168,
      "Ġble": 1169,
      "ĠCereal": 1170,
      "ĠSo": 1171,
      "ĠGreek": 1172,
      "Ġ20": 1173,
      "ĠVanilla": 1174,
      "genated": 1175,
      "11": 1176,
      "cake": 1177,
      "pasteurized": 1178,
      "Ġbanana": 1179,
      "ĠChip": 1180,
      "ashew": 1181,
      "bleached": 1182,
      "Ġdisti": 1183,
      "ĠGranola": 1184,
      "Ġchip": 1185,
      "Ġflax": 1186,
      "ĠPantry": 1187,
      "ĠMarket": 1188,
      "os": 1189,
      "ori": 1190,
      "ght": 1191,
      "Ġpepper": 1192,
      "Ġfrom": 1193,
      "cory": 1194,
      "ĠKids": 1195,
      "Ġbleached": 1196,
      "itol": 1197,
      "up": 1198,
      "xide": 1199,
      "Ġskim": 1200,
      "ress": 1201,
      "Ġchicory": 1202,
      "ĠSugar": 1203,
      "Ġ..": 1204,
      "ang": 1205,
      "umin": 1206,
      "ĠTo": 1207,
      "Ġdatem": 1208,
      "Ġunsweetened": 1209,
      "isin": 1210,
      "soybean": 1211,
      "Ġinverted": 1212,
      "Ġ...": 1213,
      "Ġde": 1214,
      "ange": 1215,
      "Ġwith": 1216,
      "olk": 1217,
      "Ġlake": 1218,
      "Ġorange": 1219,
      "aple": 1220,
      "agne": 1221,
      "Ġliquor": 1222,
      "Ġfer": 1223,
      "les": 1224,
      "Ġpap": 1225,
      "Ġgel": 1226,
      "ĠPeanut": 1227,
      "ĠFruit": 1228,
      "Ġyolk": 1229,
      "ess": 1230,
      "ĠWaff": 1231,
      "Ġalumin": 1232,
      "Ġroot": 1233,
      "reserv": 1234,
      "ylate": 1235,
      "ffeine": 1236,
      "Ġcaffeine": 1237,
      "ressing": 1238,
      "co": 1239,
      "cose": 1240,
      "sweet": 1241,
      "Ġpreserv": 1242,
      "rye": 1243,
      "Ġhydrogenated": 1244,
      "arkling": 1245,
      "Ġcaseinate": 1246,
      "Ġdistilled": 1247,
      "Ġflaxseed": 1248,
      "agnesium": 1249,
      "Ġpreservative": 1250,
      "col": 1251,
      "flour": 1252,
      "partame": 1253,
      "Ġrye": 1254,
      "enan": 1255,
      "risp": 1256,
      "Ġaspartame": 1257,
      "rage": 1258,
      "Ġcarrot": 1259,
      "Ġcarrage": 1260,
      "ĠDressing": 1261,
      "Ġaluminum": 1262,
      "Ġcarrageenan": 1263,
      "Ġbran": 1264,
      "ĠBlue": 1265,
      "ade": 1266,
      "Ġsh": 1267,
      "Ġoxide": 1268,
      "Ġstevia": 1269,
      "ritol": 1270,
      "Ġcashew": 1271,
      "Ġ24": 1272,
      "Ġfatty": 1273,
      "Ġeryth": 1274,
      "Ġste": 1275,
      "Ġcranberry": 1276,
      "Ġmagnesium": 1277,
      "ĠCup": 1278,
      "spberry": 1279,
      "luten": 1280,
      "asted": 1281,
      "Ġsemi": 1282,
      "ĠDay": 1283,
      "ooki": 1284,
      "Ġrose": 1285,
      "resh": 1286,
      "ĠLight": 1287,
      "Ġunbleached": 1288,
      "ka": 1289,
      "Ġfresh": 1290,
      "Ġmustard": 1291,
      "ature": 1292,
      "ĠNature": 1293,
      "ĠApple": 1294,
      "ĠFav": 1295,
      "ĠFarm": 1296,
      "ĠGluten": 1297,
      "ĠWhole": 1298,
      "orite": 1299,
      "ĠFavorite": 1300,
      "cream": 1301,
      "rika": 1302,
      "erg": 1303,
      "cillu": 1304,
      "Ġcrisp": 1305,
      "ĠPou": 1306,
      "ĠHoney": 1307,
      "Ġpaprika": 1308,
      "cillus": 1309,
      "75": 1310,
      "ave": 1311,
      "calcium": 1312,
      "ness": 1313,
      "ylen": 1314,
      "Ġz": 1315,
      "Ġ100": 1316,
      "akes": 1317,
      "Ġtur": 1318,
      "ultured": 1319,
      "meric": 1320,
      "Ġglycol": 1321,
      "bacillus": 1322,
      "ango": 1323,
      "ylene": 1324,
      "her": 1325,
      "pylene": 1326,
      "eral": 1327,
      "und": 1328,
      "Ġraisin": 1329,
      "ĠBlueberry": 1330,
      "au": 1331,
      "cultured": 1332,
      "Ġmil": 1333,
      "live": 1334,
      "ĠSparkling": 1335,
      "fl": 1336,
      "Ġed": 1337,
      "ineral": 1338,
      "ructose": 1339,
      "ĠBi": 1340,
      "Ġ15": 1341,
      "Ġpea": 1342,
      "Ġraspberry": 1343,
      "14": 1344,
      "Ġester": 1345,
      "sucrose": 1346,
      "inc": 1347,
      "orten": 1348,
      "lack": 1349,
      "ĠCooki": 1350,
      "Ġshorten": 1351,
      "ĠPouch": 1352,
      "Ġzinc": 1353,
      "Ġedta": 1354,
      "Ġshortening": 1355,
      "stal": 1356,
      "ĠSal": 1357,
      "rystal": 1358,
      "ĠMilk": 1359,
      "mond": 1360,
      "urified": 1361,
      "aroyl": 1362,
      "pota": 1363,
      "Ġlactylate": 1364,
      "ĠAlmond": 1365,
      "mary": 1366,
      "Ġ...);": 1367,
      "Ġstearoyl": 1368,
      "Ġrosemary": 1369,
      "Ġfreshness": 1370,
      "Ġturmeric": 1371,
      "66": 1372,
      "ita": 1373,
      "Ġfor": 1374,
      "ĠCar": 1375,
      "ĠCream": 1376,
      "ĠBerry": 1377,
      "meal": 1378,
      "ĠSoda": 1379,
      "ĠWaffles": 1380,
      "ss": 1381,
      "Ġ7": 1382,
      "let": 1383,
      "ello": 1384,
      "ĠCinnamon": 1385,
      "ĠBanana": 1386,
      "ack": 1387,
      "ĠDark": 1388,
      "Ġyogurt": 1389,
      "Ġchloride": 1390,
      "mat": 1391,
      "anto": 1392,
      "Ġpurified": 1393,
      "Ġpanto": 1394,
      "eet": 1395,
      "round": 1396,
      "Ġmineral": 1397,
      "Ġbu": 1398,
      "then": 1399,
      "ĠPie": 1400,
      "Ġ64": 1401,
      "ĠHi": 1402,
      "ĠVal": 1403,
      "ĠOatmeal": 1404,
      "mato": 1405,
      "Ġpantothen": 1406,
      "malt": 1407,
      "Ġolive": 1408,
      "ĠPo": 1409,
      "Ġpear": 1410,
      "ĠKello": 1411,
      "ĠEgg": 1412,
      "ough": 1413,
      "Ġflake": 1414,
      "ĠValley": 1415,
      "Ġpantothenate": 1416,
      "57": 1417,
      "fe": 1418,
      "obacillus": 1419,
      "ani": 1420,
      "ĠNut": 1421,
      "Ġground": 1422,
      "ĠMin": 1423,
      "sorbitol": 1424,
      "ĠLemonade": 1425,
      "ĠKellogg": 1426,
      "22": 1427,
      "28": 1428,
      "fructose": 1429,
      "lin": 1430,
      "ltered": 1431,
      "tho": 1432,
      "ĠQ": 1433,
      "Ġtar": 1434,
      "filtered": 1435,
      "atin": 1436,
      "ell": 1437,
      "ĠSe": 1438,
      "Ġtri": 1439,
      "Ġpowdered": 1440,
      "Ġlime": 1441,
      "Ġroasted": 1442,
      "ĠBottles": 1443,
      "ĠOats": 1444,
      "ĠCherry": 1445,
      "Ġferric": 1446,
      "Ġgelatin": 1447,
      "ĠSalad": 1448,
      "age": 1449,
      "han": 1450,
      "non": 1451,
      "whole": 1452,
      "ino": 1453,
      "inach": 1454,
      "titol": 1455,
      "ĠSmo": 1456,
      "aked": 1457,
      "Ġ11": 1458,
      "Ġpropylene": 1459,
      "wdered": 1460,
      "ĠLarab": 1461,
      "tyle": 1462,
      "333": 1463,
      "Ġerythritol": 1464,
      "Ġmillet": 1465,
      "667": 1466,
      "ĠLarabar": 1467,
      "62": 1468,
      "wi": 1469,
      "Ġdextrin": 1470,
      "Ġbeet": 1471,
      "ĠCoconut": 1472,
      "ĠFlavor": 1473,
      "ĠOran": 1474,
      "othi": 1475,
      "ĠLow": 1476,
      "Ġglucose": 1477,
      "ĠRed": 1478,
      "powdered": 1479,
      "ĠEnhan": 1480,
      "ĠPouches": 1481,
      "Ġtartar": 1482,
      "ĠSmoothi": 1483,
      "ĠOrange": 1484,
      "20": 1485,
      "ft": 1486,
      "im": 1487,
      "ren": 1488,
      "Ġpaste": 1489,
      "umpk": 1490,
      "hol": 1491,
      "est": 1492,
      "oxide": 1493,
      "quid": 1494,
      "ĠLiquid": 1495,
      "umpkin": 1496,
      "free": 1497,
      "nut": 1498,
      "yr": 1499,
      "rice": 1500,
      "Ġmar": 1501,
      "ĠGood": 1502,
      "ĠWheat": 1503,
      "ĠWhite": 1504,
      "ĠQu": 1505,
      "ĠSmoothie": 1506,
      "ctive": 1507,
      "cakes": 1508,
      "ew": 1509,
      "gave": 1510,
      "lan": 1511,
      "ĠZ": 1512,
      "ers": 1513,
      "Ġtomato": 1514,
      "ĠBe": 1515,
      "ĠBrown": 1516,
      "reen": 1517,
      "raft": 1518,
      "ĠGo": 1519,
      "ĠKraft": 1520,
      "\\\";": 1521,
      "otton": 1522,
      "ĠYo": 1523,
      "18": 1524,
      "27": 1525,
      "gra": 1526,
      "same": 1527,
      "white": 1528,
      "Ġco": 1529,
      "ilus": 1530,
      "ĠCru": 1531,
      "aker": 1532,
      "Ġmilkfat": 1533,
      "Ġ18": 1534,
      "pping": 1535,
      "Ġdark": 1536,
      "Ġsesame": 1537,
      "ĠHe": 1538,
      "ckwheat": 1539,
      "ĠLime": 1540,
      "aspberry": 1541,
      "philus": 1542,
      "ĠCheese": 1543,
      "potassium": 1544,
      "Ġbuckwheat": 1545,
      "17": 1546,
      "44": 1547,
      "bi": 1548,
      "Ġactive": 1549,
      "Ġcotton": 1550,
      "ill": 1551,
      "tioner": 1552,
      "Ġbh": 1553,
      "Ġbi": 1554,
      "ĠSalt": 1555,
      "Ġdioxide": 1556,
      "ĠGat": 1557,
      "Ġ32": 1558,
      "ĠGrape": 1559,
      "Ġcottonseed": 1560,
      "83": 1561,
      "ax": 1562,
      "acon": 1563,
      "bani": 1564,
      "erid": 1565,
      "nau": 1566,
      "oun": 1567,
      "Ġre": 1568,
      "Ġicing": 1569,
      "ale": 1570,
      "tes": 1571,
      "Ġpumpkin": 1572,
      "Ġwax": 1573,
      "elt": 1574,
      "hobani": 1575,
      "ĠChobani": 1576,
      "ĠSqu": 1577,
      "ĠStyle": 1578,
      "ĠFat": 1579,
      "pperid": 1580,
      "Ġcarnau": 1581,
      "ĠRaspberry": 1582,
      "Ġlactate": 1583,
      "ĠPepperid": 1584,
      "ĠGrain": 1585,
      "Ġlactobacillus": 1586,
      "ergy": 1587,
      "ĠQuaker": 1588,
      "Ġcarnauba": 1589,
      "ĠPepperidge": 1590,
      "15": 1591,
      "32": 1592,
      "35": 1593,
      "Ġqu": 1594,
      "art": 1595,
      "arate": 1596,
      "garine": 1597,
      "Ġagave": 1598,
      "sed": 1599,
      "ork": 1600,
      "Ġblack": 1601,
      "ĠSun": 1602,
      "ĠFood": 1603,
      "ĠFren": 1604,
      "ĠMi": 1605,
      "ĠDan": 1606,
      "unch": 1607,
      "Ġalgin": 1608,
      "Ġalco": 1609,
      "Ġpure": 1610,
      "apor": 1611,
      "Ġand": 1612,
      "ĠEnergy": 1613,
      "ĠTopping": 1614,
      "coph": 1615,
      "ĠBites": 1616,
      "Ġmargarine": 1617,
      "ĠFrench": 1618,
      "Ġalginate": 1619,
      "Ġalcohol": 1620,
      "26": 1621,
      "coconut": 1622,
      "min": 1623,
      "man": 1624,
      "ste": 1625,
      "Ġte": 1626,
      "onn": 1627,
      "tant": 1628,
      "ero": 1629,
      "Ġmaple": 1630,
      "ĠNaked": 1631,
      "ĠCrystal": 1632,
      "ther": 1633,
      "ricalcium": 1634,
      "Ġtricalcium": 1635,
      "ineapple": 1636,
      "ĠMango": 1637,
      "Ġsucrose": 1638,
      "monocalcium": 1639,
      "unsweetened": 1640,
      "Ġsorbitol": 1641,
      "ĠKI": 1642,
      "ĠKe": 1643,
      "sting": 1644,
      "ĠThe": 1645,
      "ĠMini": 1646,
      "ĠEnhancer": 1647,
      "ĠGather": 1648,
      "42": 1649,
      "glu": 1650,
      "ian": 1651,
      "nch": 1652,
      "om": 1653,
      "ple": 1654,
      "pla": 1655,
      "vapor": 1656,
      "der": 1657,
      "Ġamar": 1658,
      "tend": 1659,
      "las": 1660,
      "ĠIce": 1661,
      "ick": 1662,
      "ĠPur": 1663,
      "ĠPunch": 1664,
      "Ġextend": 1665,
      "fatted": 1666,
      "Ġortho": 1667,
      "Ġspinach": 1668,
      "airy": 1669,
      "Ġdefatted": 1670,
      "ĠEggo": 1671,
      "inoa": 1672,
      "Ġbht": 1673,
      "Ġquinoa": 1674,
      "glucose": 1675,
      "vaporated": 1676,
      "Ġamaranth": 1677,
      "Ġorthophosphate": 1678,
      ")),": 1679,
      "19": 1680,
      "ND": 1681,
      "but": 1682,
      "canola": 1683,
      "rum": 1684,
      "Ġerg": 1685,
      "arbon": 1686,
      "tain": 1687,
      "tre": 1688,
      "laze": 1689,
      "Ġmix": 1690,
      "Ġmeal": 1691,
      "Ġmango": 1692,
      "sic": 1693,
      "Ġgranola": 1694,
      "Ġglaze": 1695,
      "Ġflavored": 1696,
      "Ġvanil": 1697,
      "ocalciferol": 1698,
      "ĠSyrup": 1699,
      "ĠPat": 1700,
      "ĠPre": 1701,
      "Ġiso": 1702,
      "Ġkos": 1703,
      "ĠPancake": 1704,
      "aise": 1705,
      "ĠCookie": 1706,
      "ĠFlavored": 1707,
      "yrate": 1708,
      "ĠDannon": 1709,
      "onnaise": 1710,
      "ĠKIND": 1711,
      "butyrate": 1712,
      "Ġergocalciferol": 1713,
      "Ġvanillin": 1714,
      "Ġisobutyrate": 1715,
      "Ġkosher": 1716,
      "37": 1717,
      "LO": 1718,
      "aus": 1719,
      "dar": 1720,
      "fee": 1721,
      "ium": 1722,
      "ton": 1723,
      "ud": 1724,
      "den": 1725,
      "Ġagar": 1726,
      "Ġbic": 1727,
      "ĠClas": 1728,
      "ĠBak": 1729,
      "ĠBis": 1730,
      "ĠSn": 1731,
      "rac": 1732,
      "rack": 1733,
      "ĠMay": 1734,
      "Ġdough": 1735,
      "offee": 1736,
      "mium": 1737,
      "ĠCupcake": 1738,
      "ĠCookies": 1739,
      "grape": 1740,
      "ĠSquee": 1741,
      "arbonate": 1742,
      "LOW": 1743,
      "ausage": 1744,
      "Ġbicarbonate": 1745,
      "ĠClassic": 1746,
      "ĠBakery": 1747,
      "ase": 1748,
      "skim": 1749,
      "stant": 1750,
      "ally": 1751,
      "tan": 1752,
      "eryl": 1753,
      "Ġcake": 1754,
      "rous": 1755,
      "artially": 1756,
      "Ġnut": 1757,
      "ili": 1758,
      "Ġwine": 1759,
      "Ġbul": 1760,
      "tocoph": 1761,
      "ĠInstant": 1762,
      "ĠSof": 1763,
      "ĠSweet": 1764,
      "ĠSim": 1765,
      "Ġcondi": 1766,
      "ĠDie": 1767,
      "Ġpeach": 1768,
      "Ġmonosodium": 1769,
      "Ġcherry": 1770,
      "ĠButtermilk": 1771,
      "pha": 1772,
      "Ġferrous": 1773,
      "ĠHigh": 1774,
      "ĠZero": 1775,
      "udge": 1776,
      "ĠMayonnaise": 1777,
      "tocopheryl": 1778,
      "ĠSoft": 1779,
      "ĠDiet": 1780,
      "13": 1781,
      "29": 1782,
      "34": 1783,
      "Free": 1784,
      "bo": 1785,
      "cu": 1786,
      "cin": 1787,
      "ect": 1788,
      "hyd": 1789,
      "lery": 1790,
      "rl": 1791,
      "use": 1792,
      "zer": 1793,
      "Ġon": 1794,
      "Ġti": 1795,
      "Ġes": 1796,
      "alnut": 1797,
      "anch": 1798,
      "insen": 1799,
      "sence": 1800,
      "eddar": 1801,
      "ores": 1802,
      "rop": 1803,
      "Ġof": 1804,
      "Ġbell": 1805,
      "ĠNon": 1806,
      "Ġgreen": 1807,
      "Ġginsen": 1808,
      "reme": 1809,
      "Ġconden": 1810,
      "Ġ14": 1811,
      "ĠMustard": 1812,
      "tamate": 1813,
      "Ġdiester": 1814,
      "its": 1815,
      "Ġvegan": 1816,
      "Ġsorbita": 1817,
      "Ġglutamate": 1818,
      "ĠRe": 1819,
      "ĠRanch": 1820,
      "Ġchia": 1821,
      "Ġcelery": 1822,
      "ĠPeach": 1823,
      "ĠCupcakes": 1824,
      "571": 1825,
      "wirl": 1826,
      "ĠCrunch": 1827,
      "Ġconditioner": 1828,
      "ectar": 1829,
      "Ġessence": 1830,
      "Ġginseng": 1831,
      "Ġcondensed": 1832,
      "Ġsorbitan": 1833,
      "23": 1834,
      "30": 1835,
      "36": 1836,
      "40": 1837,
      "46": 1838,
      "77": 1839,
      "coc": 1840,
      "lice": 1841,
      "mul": 1842,
      "pto": 1843,
      "peanut": 1844,
      "sh": 1845,
      "Ġ9": 1846,
      "Ġther": 1847,
      "ard": 1848,
      "arin": 1849,
      "garic": 1850,
      "rit": 1851,
      "fier": 1852,
      "Ġpartially": 1853,
      "row": 1854,
      "Ġnectar": 1855,
      "sion": 1856,
      "sifier": 1857,
      "ply": 1858,
      "ĠChew": 1859,
      "ĠBo": 1860,
      "ĠFil": 1861,
      "ĠMaple": 1862,
      "Ġinul": 1863,
      "ĠDel": 1864,
      "ĠWil": 1865,
      "maltitol": 1866,
      "Ġemul": 1867,
      "mophilus": 1868,
      "167": 1869,
      "Ġ...).\"}<|": 1870,
      "auce": 1871,
      "Ġtartaric": 1872,
      "minated": 1873,
      "trepto": 1874,
      "Ġbulgaric": 1875,
      "ĠSimply": 1876,
      "hydr": 1877,
      "coccus": 1878,
      "Ġthermophilus": 1879,
      "ĠChewy": 1880,
      "Ġinulin": 1881,
      "Ġemulsifier": 1882,
      "treptococcus": 1883,
      "Ġbulgaricus": 1884,
      "38": 1885,
      "69": 1886,
      "can": 1887,
      "maple": 1888,
      "rgin": 1889,
      "way": 1890,
      "Ġl": 1891,
      "ars": 1892,
      "Ġsor": 1893,
      "Ġsweet": 1894,
      "tiox": 1895,
      "ant": 1896,
      "Ġpineapple": 1897,
      "ĠCola": 1898,
      "ĠCranberry": 1899,
      "ĠCakes": 1900,
      "ĠBlack": 1901,
      "Ġnaturally": 1902,
      "ĠSwirl": 1903,
      "ĠSlice": 1904,
      "ascorbic": 1905,
      "ĠPow": 1906,
      "ĠMoun": 1907,
      "ghum": 1908,
      "glycer": 1909,
      "ĠDi": 1910,
      "Ġmaltitol": 1911,
      "ĠLa": 1912,
      "unk": 1913,
      "Ġvirgin": 1914,
      "Ġalpha": 1915,
      "Ġcheddar": 1916,
      "ook": 1917,
      "ĠTrop": 1918,
      "ĠEx": 1919,
      "idant": 1920,
      "ĠAll": 1921,
      "erythritol": 1922,
      "ĠWaffle": 1923,
      "Ġerythorb": 1924,
      "ĠCaramel": 1925,
      "racked": 1926,
      "ĠSqueeze": 1927,
      "Ġsorghum": 1928,
      "tioxidant": 1929,
      "ĠMountain": 1930,
      "09": 1931,
      "atam": 1932,
      "hy": 1933,
      "hydro": 1934,
      "line": 1935,
      "od": 1936,
      "ycin": 1937,
      "Ġsweetened": 1938,
      "anylate": 1939,
      "leores": 1940,
      "trus": 1941,
      "Ġsolu": 1942,
      "Ġnatam": 1943,
      "inger": 1944,
      "Ġoleores": 1945,
      "hick": 1946,
      "Ġbel": 1947,
      "Ġbacon": 1948,
      "Ġascorb": 1949,
      "egetable": 1950,
      "ashi": 1951,
      "ĠPack": 1952,
      "ĠFla": 1953,
      "ĠMr": 1954,
      "Ġinos": 1955,
      "Ġdicalcium": 1956,
      "ĠOn": 1957,
      "ĠOwn": 1958,
      "Ġmonoste": 1959,
      "Ġguanylate": 1960,
      "Ġevaporated": 1961,
      "Ġpolyglycer": 1962,
      "Ġ30": 1963,
      "rinkle": 1964,
      "estle": 1965,
      "ills": 1966,
      "ĠPremium": 1967,
      "ĠBiscu": 1968,
      "tanium": 1969,
      "Ġtitanium": 1970,
      "ĠDeli": 1971,
      "Ġsoluble": 1972,
      "Ġnatamycin": 1973,
      "Ġoleoresin": 1974,
      "Ġascorbate": 1975,
      "Ġinosinate": 1976,
      "Ġmonostearate": 1977,
      "Ġpolyglycerol": 1978,
      "ĠBiscuits": 1979,
      "24": 1980,
      "65": 1981,
      "AR": 1982,
      "BAR": 1983,
      "adi": 1984,
      "fd": 1985,
      "ger": 1986,
      "meg": 1987,
      "osi": 1988,
      "pro": 1989,
      "psi": 1990,
      "sin": 1991,
      "ĠU": 1992,
      "int": 1993,
      "Ġsauce": 1994,
      "Ġcrum": 1995,
      "Ġcracked": 1996,
      "Ġfree": 1997,
      "Ġfrac": 1998,
      "ating": 1999,
      "orm": 2000,
      "rolled": 2001,
      "onest": 2002,
      "Ġbro": 2003,
      "ĠNestle": 2004,
      "ĠCorn": 2005,
      "ĠBaking": 2006,
      "thyl": 2007,
      "ray": 2008,
      "ulp": 2009,
      "ĠOil": 2010,
      "odiak": 2011,
      "Ġ52": 2012,
      "ĠHonest": 2013,
      "ĠRX": 2014,
      "ĠRa": 2015,
      "Ġguarana": 2016,
      "Ġglycerol": 2017,
      "ticale": 2018,
      "ĠSpray": 2019,
      "ĠPepsi": 2020,
      "agave": 2021,
      "rystalline": 2022,
      "Ġtriticale": 2023,
      "ĠYopla": 2024,
      "ĠHealt": 2025,
      "ĠCheesecake": 2026,
      "ĠSunb": 2027,
      "ĠMiO": 2028,
      "Ġtea": 2029,
      "ĠPure": 2030,
      "ooked": 2031,
      "ĠTropic": 2032,
      "Ġfraction": 2033,
      "ĠYoplait": 2034,
      "89": 2035,
      "846": 2036,
      "Cro": 2037,
      "af": 2038,
      "away": 2039,
      "barley": 2040,
      "eat": 2041,
      "pon": 2042,
      "sal": 2043,
      "ster": 2044,
      "uff": 2045,
      "Ġta": 2046,
      "Ġhe": 2047,
      "Ġthin": 2048,
      "aric": 2049,
      "sul": 2050,
      "Ġfum": 2051,
      "Ġpork": 2052,
      "Ġpars": 2053,
      "lain": 2054,
      "lact": 2055,
      "zel": 2056,
      "Ġwalnut": 2057,
      "ĠBox": 2058,
      "ĠPlain": 2059,
      "ĠFudge": 2060,
      "Ġcaraway": 2061,
      "ĠDairy": 2062,
      "ĠKodiak": 2063,
      "Ġrosin": 2064,
      "avy": 2065,
      "ĠReal": 2066,
      "pear": 2067,
      "Ġunsal": 2068,
      "ĠMixed": 2069,
      "Ġfilling": 2070,
      "Ġfrosting": 2071,
      "ĠSup": 2072,
      "Ġinvert": 2073,
      "potato": 2074,
      "ĠCreamy": 2075,
      "ĠHidden": 2076,
      "ĠSea": 2077,
      "ĠBet": 2078,
      "Ġcoating": 2079,
      "Ġonly": 2080,
      "ĠNonfat": 2081,
      "ĠPower": 2082,
      "ĠLaCro": 2083,
      "ĠExtra": 2084,
      "ĠSunbelt": 2085,
      "Ġthink": 2086,
      "Ġparsley": 2087,
      "Ġunsalted": 2088,
      "ĠLaCroix": 2089,
      "05": 2090,
      "39": 2091,
      "58": 2092,
      "714": 2093,
      "857": 2094,
      "ation": 2095,
      "bh": 2096,
      "bur": 2097,
      "car": 2098,
      "ig": 2099,
      "tin": 2100,
      "als": 2101,
      "Ġspi": 2102,
      "cean": 2103,
      "urine": 2104,
      "Ġcoffee": 2105,
      "fite": 2106,
      "lac": 2107,
      "Ġbit": 2108,
      "rulin": 2109,
      "exam": 2110,
      "Ġgrit": 2111,
      "oll": 2112,
      "Ġconcentrated": 2113,
      "egan": 2114,
      "ass": 2115,
      "ason": 2116,
      "ĠPills": 2117,
      "Ġtbh": 2118,
      "Ġ17": 2119,
      "Ġhexam": 2120,
      "etaphosphate": 2121,
      "ĠOcean": 2122,
      "otin": 2123,
      "ĠHot": 2124,
      "ĠHers": 2125,
      "Ġ21": 2126,
      "Ġsprinkle": 2127,
      "ffy": 2128,
      "ish": 2129,
      "Ġantioxidant": 2130,
      "moke": 2131,
      "ĠDrinks": 2132,
      "ĠSour": 2133,
      "Ġdeger": 2134,
      "ĠCarrot": 2135,
      "ĠPota": 2136,
      "Ġbiotin": 2137,
      "ĠSnack": 2138,
      "Ġessenced": 2139,
      "hydrated": 2140,
      "propylene": 2141,
      "ĠRXBAR": 2142,
      "Ġfractionated": 2143,
      "Ġtaurine": 2144,
      "Ġfumaric": 2145,
      "bury": 2146,
      "Ġspirulin": 2147,
      "ĠPillsbury": 2148,
      "Ġtbhq": 2149,
      "Ġhexametaphosphate": 2150,
      "ĠHershey": 2151,
      "Ġspirulina": 2152,
      "41": 2153,
      "583": 2154,
      "NA": 2155,
      "UNA": 2156,
      "Vita": 2157,
      "cC": 2158,
      "ey": 2159,
      "ich": 2160,
      "ibacillus": 2161,
      "ment": 2162,
      "oat": 2163,
      "otic": 2164,
      "ophilus": 2165,
      "ts": 2166,
      "tu": 2167,
      "ye": 2168,
      "Ġsmoke": 2169,
      "rite": 2170,
      "cellulose": 2171,
      "sel": 2172,
      "fidu": 2173,
      "Ġpie": 2174,
      "orsel": 2175,
      "house": 2176,
      "ĠNew": 2177,
      "ĠAr": 2178,
      "ĠItal": 2179,
      "Ġacidophilus": 2180,
      "ĠCocoa": 2181,
      "ĠBlend": 2182,
      "ĠBacon": 2183,
      "icy": 2184,
      "lyzed": 2185,
      "ock": 2186,
      "read": 2187,
      "ĠSh": 2188,
      "ĠSi": 2189,
      "ĠSelt": 2190,
      "ĠSausage": 2191,
      "luffy": 2192,
      "Ġcitrus": 2193,
      "Ġ13": 2194,
      "ĠFluffy": 2195,
      "ĠMa": 2196,
      "ĠMcC": 2197,
      "Ġproce": 2198,
      "pped": 2199,
      "Ġdipotassium": 2200,
      "ĠDew": 2201,
      "ĠGreen": 2202,
      "esan": 2203,
      "ĠLUNA": 2204,
      "oos": 2205,
      "Ġhydrolyzed": 2206,
      "ĠKashi": 2207,
      "ĠpurÃ": 2208,
      "ĠHom": 2209,
      "Ġ22": 2210,
      "ĠRich": 2211,
      "Ġsparkling": 2212,
      "Ġchick": 2213,
      "ĠLife": 2214,
      "cured": 2215,
      "ĠFrosting": 2216,
      "Ġlacticase": 2217,
      "Ġcasei": 2218,
      "armesan": 2219,
      "Ġdehydrated": 2220,
      "Ġmilled": 2221,
      "ĠBir": 2222,
      "fec": 2223,
      "ĠHeart": 2224,
      "Ġbifidu": 2225,
      "ĠPath": 2226,
      "778": 2227,
      "ĠBob": 2228,
      "ĠbelVita": 2229,
      "thylcellulose": 2230,
      "ĠHealthy": 2231,
      "Ġheavy": 2232,
      "ĠExtract": 2233,
      "Ġdegerminated": 2234,
      "Ġpiece": 2235,
      "ĠItalian": 2236,
      "ĠSeltzer": 2237,
      "Ġlacticaseibacillus": 2238,
      "Ġbifidus": 2239,
      "31": 2240,
      "45": 2241,
      "85": 2242,
      "833": 2243,
      "bly": 2244,
      "crystalline": 2245,
      "fa": 2246,
      "iry": 2247,
      "iwi": 2248,
      "jon": 2249,
      "mel": 2250,
      "ool": 2251,
      "omi": 2252,
      "part": 2253,
      "ub": 2254,
      "udi": 2255,
      "yfi": 2256,
      "ari": 2257,
      "Ġsausage": 2258,
      "Ġstreptococcus": 2259,
      "Ġsaf": 2260,
      "tage": 2261,
      "Ġcru": 2262,
      "Ġcooked": 2263,
      "lec": 2264,
      "Ġparmesan": 2265,
      "enriched": 2266,
      "falfa": 2267,
      "tom": 2268,
      "eld": 2269,
      "Ġginger": 2270,
      "ĠJus": 2271,
      "amomi": 2272,
      "dul": 2273,
      "ĠCi": 2274,
      "ĠCo": 2275,
      "ĠCashew": 2276,
      "ĠBlen": 2277,
      "ĠBest": 2278,
      "rey": 2279,
      "ĠSton": 2280,
      "lulose": 2281,
      "ascorb": 2282,
      "ĠPer": 2283,
      "ĠFli": 2284,
      "ghurt": 2285,
      "ĠDou": 2286,
      "vet": 2287,
      "ĠOrow": 2288,
      "dairy": 2289,
      "Ġalfalfa": 2290,
      "Ġchunk": 2291,
      "Ġchamomi": 2292,
      "ĠHou": 2293,
      "ĠTri": 2294,
      "ĠThick": 2295,
      "ĠToll": 2296,
      "Ġglucon": 2297,
      "ĠRye": 2298,
      "key": 2299,
      "ranate": 2300,
      "Ġglycerine": 2301,
      "verage": 2302,
      "ĠPancakes": 2303,
      "baudi": 2304,
      "ĠPepper": 2305,
      "Ġgellan": 2306,
      "Ġbubly": 2307,
      "ĠCrust": 2308,
      "ĠGrapefruit": 2309,
      "Ġblackberry": 2310,
      "ĠPacks": 2311,
      "ĠMrs": 2312,
      "megranate": 2313,
      "oside": 2314,
      "Ġfreeze": 2315,
      "ormick": 2316,
      "sulfite": 2317,
      "lactobacillus": 2318,
      "ĠPotato": 2319,
      "ĠMcCormick": 2320,
      "ĠHomes": 2321,
      "Ġchicken": 2322,
      "melon": 2323,
      "yfield": 2324,
      "Ġsafflower": 2325,
      "ĠBlended": 2326,
      "ĠStonyfield": 2327,
      "ascorbyl": 2328,
      "ĠFlip": 2329,
      "ĠDouble": 2330,
      "ĠOroweat": 2331,
      "Ġchamomile": 2332,
      "ĠHouse": 2333,
      "baudioside": 2334,
      "Aid": 2335,
      "azel": 2336,
      "chocolate": 2337,
      "ham": 2338,
      "ia": 2339,
      "kyr": 2340,
      "ld": 2341,
      "lari": 2342,
      "my": 2343,
      "uck": 2344,
      "©e": 2345,
      "Ġtal": 2346,
      "Ġtam": 2347,
      "Ġhip": 2348,
      "Ġdul": 2349,
      "ara": 2350,
      "tess": 2351,
      "Ġsqu": 2352,
      "tail": 2353,
      "erm": 2354,
      "cious": 2355,
      "Ġclari": 2356,
      "Ġful": 2357,
      "troly": 2358,
      "lagen": 2359,
      "Ġnit": 2360,
      "Ġmic": 2361,
      "Ġmeta": 2362,
      "ĠNoos": 2363,
      "Ġgreek": 2364,
      "old": 2365,
      "ollagen": 2366,
      "ĠJim": 2367,
      "amic": 2368,
      "dic": 2369,
      "ĠCa": 2370,
      "ĠCon": 2371,
      "ĠCaff": 2372,
      "ĠCoun": 2373,
      "ĠCreme": 2374,
      "ĠCock": 2375,
      "Ġconfec": 2376,
      "rain": 2377,
      "Ġstarter": 2378,
      "ĠPulp": 2379,
      "ĠMill": 2380,
      "Ġdairy": 2381,
      "Ġiod": 2382,
      "ĠDough": 2383,
      "ĠDani": 2384,
      "ĠOld": 2385,
      "ĠLo": 2386,
      "Ġvitaminwater": 2387,
      "ĠKool": 2388,
      "aya": 2389,
      "ĠRo": 2390,
      "pea": 2391,
      "ĠVi": 2392,
      "mals": 2393,
      "125": 2394,
      "Ġgrapefruit": 2395,
      "ĠSpinach": 2396,
      "stitu": 2397,
      "ĠGraham": 2398,
      "163": 2399,
      "111": 2400,
      "ostess": 2401,
      "Ġpapaya": 2402,
      "143": 2403,
      "fect": 2404,
      "ĠEnhanced": 2405,
      "landic": 2406,
      "ĠYoghurt": 2407,
      "bisulfite": 2408,
      "ĠSalty": 2409,
      "Ġrepla": 2410,
      "mann": 2411,
      "ĠKeto": 2412,
      "ĠIcelandic": 2413,
      "ards": 2414,
      "arind": 2415,
      "ĠFilled": 2416,
      "ĠFilling": 2417,
      "ĠWild": 2418,
      "ĠWilton": 2419,
      "Ġerythorbic": 2420,
      "ĠRaisin": 2421,
      "ĠBoxes": 2422,
      "ĠSupreme": 2423,
      "ĠBetter": 2424,
      "alsamic": 2425,
      "Ġprocess": 2426,
      "ĠpurÃ©e": 2427,
      "lectroly": 2428,
      "ĠPerfect": 2429,
      "ĠTriple": 2430,
      "Ġgluconate": 2431,
      "azelnut": 2432,
      "Ġtallow": 2433,
      "Ġtamarind": 2434,
      "Ġdulse": 2435,
      "Ġclarified": 2436,
      "Ġfully": 2437,
      "Ġnitrite": 2438,
      "Ġmetabisulfite": 2439,
      "ĠNoosa": 2440,
      "ĠCaffeine": 2441,
      "ĠCocktail": 2442,
      "Ġiodate": 2443,
      "ĠDanimals": 2444,
      "Ġreplacer": 2445,
      "lectrolyte": 2446,
      "21": 2447,
      "43": 2448,
      "47": 2449,
      "417": 2450,
      "56": 2451,
      "72": 2452,
      "889": 2453,
      "96": 2454,
      "ao": 2455,
      "bili": 2456,
      "ccol": 2457,
      "dw": 2458,
      "dy": 2459,
      "dough": 2460,
      "evaporated": 2461,
      "ik": 2462,
      "kes": 2463,
      "ll": 2464,
      "ler": 2465,
      "native": 2466,
      "ser": 2467,
      "sted": 2468,
      "streptococcus": 2469,
      "tte": 2470,
      "vegetable": 2471,
      "xyl": 2472,
      "Ġ'": 2473,
      "Ġ+": 2474,
      "alori": 2475,
      "garita": 2476,
      "del": 2477,
      "Ġsta": 2478,
      "anberry": 2479,
      "Ġcab": 2480,
      "Ġcow": 2481,
      "Ġcooki": 2482,
      "Ġpana": 2483,
      "ory": 2484,
      "umber": 2485,
      "Ġmang": 2486,
      "Ġbase": 2487,
      "elp": 2488,
      "ĠNo": 2489,
      "Ġgerm": 2490,
      "ĠAcid": 2491,
      "ĠJew": 2492,
      "ĠChi": 2493,
      "ĠClu": 2494,
      "ĠCalcium": 2495,
      "ĠCoffee": 2496,
      "ĠCalori": 2497,
      "ĠSm": 2498,
      "ĠSara": 2499,
      "anese": 2500,
      "ternative": 2501,
      "assion": 2502,
      "ĠPineapple": 2503,
      "Ġ19": 2504,
      "ĠFiber": 2505,
      "ĠMul": 2506,
      "ĠMorsel": 2507,
      "ppy": 2508,
      "Ġhazelnut": 2509,
      "ĠDean": 2510,
      "ĠDess": 2511,
      "ĠOnce": 2512,
      "ĠOlive": 2513,
      "ĠLee": 2514,
      "Ġchili": 2515,
      "Ġhydroxide": 2516,
      "Ġkelp": 2517,
      "Ġroman": 2518,
      "cranberry": 2519,
      "ava": 2520,
      "ĠTh": 2521,
      "ĠVegetable": 2522,
      "Ġetho": 2523,
      "Ġelectrolyte": 2524,
      "ĠEdw": 2525,
      "kale": 2526,
      "ĠWatermelon": 2527,
      "ĠFrosted": 2528,
      "bage": 2529,
      "ĠGrains": 2530,
      "ĠTomato": 2531,
      "222": 2532,
      "ĠSeed": 2533,
      "Ġtriglyceride": 2534,
      "ĠBear": 2535,
      "ĠBeverage": 2536,
      "Ġcopper": 2537,
      "444": 2538,
      "biotic": 2539,
      "ĠFoods": 2540,
      "ĠCrunchy": 2541,
      "ĠDijon": 2542,
      "Ġerythorbate": 2543,
      "ĠFlakes": 2544,
      "ĠDelicious": 2545,
      "ĠUpon": 2546,
      "Ġcrumb": 2547,
      "ĠTropical": 2548,
      "sters": 2549,
      "asoning": 2550,
      "Ġcrust": 2551,
      "ĠHomestyle": 2552,
      "ĠJimmy": 2553,
      "bilizer": 2554,
      "ccoli": 2555,
      "xylated": 2556,
      "Ġstabilizer": 2557,
      "Ġcabbage": 2558,
      "Ġcookie": 2559,
      "Ġpanax": 2560,
      "Ġmanganese": 2561,
      "ĠJewish": 2562,
      "ĠMulti": 2563,
      "ĠMorsels": 2564,
      "ĠDesser": 2565,
      "Ġromano": 2566,
      "Ġethoxylated": 2567,
      "ĠEdwards": 2568,
      "06": 2569,
      "08": 2570,
      "48": 2571,
      "60": 2572,
      "638": 2573,
      "76": 2574,
      "769": 2575,
      "80": 2576,
      "923": 2577,
      "Cola": 2578,
      "Go": 2579,
      "IF": 2580,
      "LIF": 2581,
      "Milk": 2582,
      "ain": 2583,
      "butter": 2584,
      "blue": 2585,
      "cap": 2586,
      "cumber": 2587,
      "dd": 2588,
      "ea": 2589,
      "gre": 2590,
      "gian": 2591,
      "hen": 2592,
      "moni": 2593,
      "ome": 2594,
      "poly": 2595,
      "rar": 2596,
      "strawberry": 2597,
      "ui": 2598,
      "ute": 2599,
      "uicy": 2600,
      "Ġ/": 2601,
      "Ġel": 2602,
      "Ġren": 2603,
      "all": 2604,
      "alan": 2605,
      "allulose": 2606,
      "inai": 2607,
      "riend": 2608,
      "Ġap": 2609,
      "annatto": 2610,
      "Ġcup": 2611,
      "Ġchol": 2612,
      "Ġfudge": 2613,
      "leate": 2614,
      "Ġper": 2615,
      "Ġpuff": 2616,
      "Ġphen": 2617,
      "orser": 2618,
      "lass": 2619,
      "ild": 2620,
      "Ġmass": 2621,
      "Ġother": 2622,
      "reduced": 2623,
      "hirar": 2624,
      "Ġby": 2625,
      "Ġberry": 2626,
      "tock": 2627,
      "elvet": 2628,
      "olar": 2629,
      "olled": 2630,
      "ĠJuicy": 2631,
      "amia": 2632,
      "ĠCu": 2633,
      "ĠCut": 2634,
      "ĠCoca": 2635,
      "ĠCLIF": 2636,
      "ĠBai": 2637,
      "ĠBaked": 2638,
      "rebaudioside": 2639,
      "ĠSan": 2640,
      "ĠSpe": 2641,
      "raspberry": 2642,
      "trasodium": 2643,
      "tersweet": 2644,
      "ricino": 2645,
      "asso": 2646,
      "ĠPolar": 2647,
      "ines": 2648,
      "ĠMon": 2649,
      "ĠMach": 2650,
      "Ġhint": 2651,
      "acad": 2652,
      "acao": 2653,
      "bled": 2654,
      "ĠDe": 2655,
      "ĠDr": 2656,
      "ĠDun": 2657,
      "ĠGlass": 2658,
      "ĠGhirar": 2659,
      "ĠOik": 2660,
      "ĠOui": 2661,
      "ĠWhip": 2662,
      "unt": 2663,
      "Ġpecan": 2664,
      "Ġvital": 2665,
      "Ġ59": 2666,
      "Ġkey": 2667,
      "Ġkiwi": 2668,
      "Ġlive": 2669,
      "ĠHostess": 2670,
      "ĠHines": 2671,
      "Ġ26": 2672,
      "ĠTea": 2673,
      "ĠRice": 2674,
      "ĠRolled": 2675,
      "ĠYasso": 2676,
      "ĠVegan": 2677,
      "ĠVinai": 2678,
      "ĠVelvet": 2679,
      "apric": 2680,
      "mallow": 2681,
      "ady": 2682,
      "Ġpolyricino": 2683,
      "ĠProbiotic": 2684,
      "Ġsulfatereduced": 2685,
      "Ġrain": 2686,
      "ĠMargarita": 2687,
      "ĠPear": 2688,
      "ĠChunk": 2689,
      "coration": 2690,
      "net": 2691,
      "ĠAlternative": 2692,
      "Ġliquid": 2693,
      "ĠChips": 2694,
      "Ġdistill": 2695,
      "ĠToast": 2696,
      "ĠToasted": 2697,
      "Ġdecoration": 2698,
      "ĠFarms": 2699,
      "ĠFarmhouse": 2700,
      "ĠSalted": 2701,
      "ĠPost": 2702,
      "ĠCoconutMilk": 2703,
      "ĠFlavors": 2704,
      "ĠMirac": 2705,
      "Ġtetrasodium": 2706,
      "ĠKey": 2707,
      "derberry": 2708,
      "ĠPatch": 2709,
      "shmallow": 2710,
      "091": 2711,
      "hydrogenated": 2712,
      "adish": 2713,
      "Ġcrumble": 2714,
      "Ġbrominated": 2715,
      "Ġbroccoli": 2716,
      "ĠTropicana": 2717,
      "lactic": 2718,
      "ĠJust": 2719,
      "Ġmicro": 2720,
      "ĠCountry": 2721,
      "Ġconfectioner": 2722,
      "ĠVitamin": 2723,
      "delli": 2724,
      "ĠCalorie": 2725,
      "ĠSmuck": 2726,
      "ĠDesserts": 2727,
      "blueberry": 2728,
      "grette": 2729,
      "monium": 2730,
      "Ġelderberry": 2731,
      "Ġrennet": 2732,
      "riendly": 2733,
      "Ġcholine": 2734,
      "Ġphenyl": 2735,
      "orseradish": 2736,
      "ĠSpecial": 2737,
      "ĠMachine": 2738,
      "acadamia": 2739,
      "ĠDuncan": 2740,
      "ĠGhirardelli": 2741,
      "ĠOikos": 2742,
      "ĠVinaigrette": 2743,
      "Ġpolyricinoleate": 2744,
      "Ġdistillate": 2745,
      "ĠMiracle": 2746,
      "))": 2747,
      "556": 2748,
      "90": 2749,
      "Ball": 2750,
      "Grain": 2751,
      "box": 2752,
      "bow": 2753,
      "cho": 2754,
      "ethylcellulose": 2755,
      "for": 2756,
      "ite": 2757,
      "lb": 2758,
      "ml": 2759,
      "magnesium": 2760,
      "mbo": 2761,
      "oil": 2762,
      "ug": 2763,
      "with": 2764,
      "Ġ0": 2765,
      "arb": 2766,
      "arve": 2767,
      "ined": 2768,
      "rich": 2769,
      "ries": 2770,
      "constitu": 2771,
      "Ġamo": 2772,
      "Ġadd": 2773,
      "tick": 2774,
      "cipe": 2775,
      "ces": 2776,
      "Ġcass": 2777,
      "Ġcapric": 2778,
      "atter": 2779,
      "Ġpit": 2780,
      "Ġpint": 2781,
      "Ġpulp": 2782,
      "ender": 2783,
      "rock": 2784,
      "romium": 2785,
      "tenal": 2786,
      "ingle": 2787,
      "Ġmethylcellulose": 2788,
      "Ġbalsamic": 2789,
      "Ġbatter": 2790,
      "lood": 2791,
      "ellac": 2792,
      "Ġgran": 2793,
      "Ġtoasted": 2794,
      "Ġtocoph": 2795,
      "ĠAnd": 2796,
      "ĠCt": 2797,
      "ĠColor": 2798,
      "ĠCrisp": 2799,
      "ĠCom": 2800,
      "ĠCrum": 2801,
      "ĠChick": 2802,
      "ĠBot": 2803,
      "ĠBender": 2804,
      "ĠBlood": 2805,
      "thda": 2806,
      "ocaro": 2807,
      "ĠSilk": 2808,
      "ĠSingle": 2809,
      "tartrate": 2810,
      "spres": 2811,
      "asil": 2812,
      "ascar": 2813,
      "ĠPink": 2814,
      "ĠFlour": 2815,
      "ĠFun": 2816,
      "ĠFructose": 2817,
      "ĠMo": 2818,
      "ĠMott": 2819,
      "ĠMineral": 2820,
      "vial": 2821,
      "vitamin": 2822,
      "Ġcarbo": 2823,
      "Ġcarbox": 2824,
      "Ġdut": 2825,
      "Ġbutterfat": 2826,
      "Ġseasoning": 2827,
      "Ġdiced": 2828,
      "Ġdihydro": 2829,
      "ulated": 2830,
      "ĠGinger": 2831,
      "ĠGrey": 2832,
      "ottage": 2833,
      "esar": 2834,
      "Ġenrich": 2835,
      "Ġchromium": 2836,
      "Ġacetic": 2837,
      "Ġkale": 2838,
      "ĠHal": 2839,
      "ĠHell": 2840,
      "ĠYork": 2841,
      "Ġspring": 2842,
      "malted": 2843,
      "Ġespres": 2844,
      "ĠEsse": 2845,
      "Ġglyceryl": 2846,
      "ĠLite": 2847,
      "ister": 2848,
      "Ġ80": 2849,
      "ĠMixers": 2850,
      "Ġ36": 2851,
      "ymethylcellulose": 2852,
      "ĠSpice": 2853,
      "ĠCandy": 2854,
      "ĠCanister": 2855,
      "carob": 2856,
      "ĠAlta": 2857,
      "Ġshellac": 2858,
      "Ġstearate": 2859,
      "ĠPoupon": 2860,
      "ĠBimbo": 2861,
      "ĠPieces": 2862,
      "ĠMinute": 2863,
      "Ġtrivial": 2864,
      "ĠLowfat": 2865,
      "ĠBrownie": 2866,
      "273": 2867,
      "bial": 2868,
      "mint": 2869,
      "ĠReady": 2870,
      "sions": 2871,
      "hydrate": 2872,
      "692": 2873,
      "ĠBlackberry": 2874,
      "ĠSliced": 2875,
      "ĠDipped": 2876,
      "ĠFlax": 2877,
      "ĠDelight": 2878,
      "Ġbittersweet": 2879,
      "ĠSourdough": 2880,
      "ĠNewman": 2881,
      "ĠShake": 2882,
      "ĠSize": 2883,
      "ĠMaid": 2884,
      "ĠBirch": 2885,
      "ĠBirthda": 2886,
      "Ġsquee": 2887,
      "ĠCaesar": 2888,
      "968": 2889,
      "ĠClusters": 2890,
      "Ġapocaro": 2891,
      "Ġpuffed": 2892,
      "Ġmicrobial": 2893,
      "arvest": 2894,
      "constituted": 2895,
      "Ġamount": 2896,
      "Ġcassava": 2897,
      "Ġpitted": 2898,
      "Ġgranulated": 2899,
      "Ġtocopherol": 2900,
      "ĠChicken": 2901,
      "ĠBottom": 2902,
      "ĠBenders": 2903,
      "Ġcarbohydrate": 2904,
      "Ġcarboxymethylcellulose": 2905,
      "Ġdihydrogen": 2906,
      "Ġenrichment": 2907,
      "ĠHellmann": 2908,
      "Ġespresso": 2909,
      "ĠEssen": 2910,
      "ĠBirthday": 2911,
      "Ġapocarotenal": 2912,
      "083": 2913,
      "432": 2914,
      "50": 2915,
      "52": 2916,
      "505": 2917,
      "545": 2918,
      "619": 2919,
      "917": 2920,
      "Fat": 2921,
      "az": 2922,
      "act": 2923,
      "bler": 2924,
      "cai": 2925,
      "ds": 2926,
      "dried": 2927,
      "dwi": 2928,
      "ful": 2929,
      "fined": 2930,
      "gascar": 2931,
      "hub": 2932,
      "ion": 2933,
      "ime": 2934,
      "ist": 2935,
      "mp": 2936,
      "mine": 2937,
      "mmonium": 2938,
      "nit": 2939,
      "nold": 2940,
      "oglyceride": 2941,
      "pyl": 2942,
      "parab": 2943,
      "pork": 2944,
      "tti": 2945,
      "tzel": 2946,
      "vy": 2947,
      "wine": 2948,
      "whey": 2949,
      "walnut": 2950,
      "Ġins": 2951,
      "Ġtr": 2952,
      "Ġice": 2953,
      "oned": 2954,
      "onola": 2955,
      "alla": 2956,
      "terey": 2957,
      "Ġscr": 2958,
      "Ġsai": 2959,
      "Ġsili": 2960,
      "Ġskyr": 2961,
      "erti": 2962,
      "erries": 2963,
      "Ġag": 2964,
      "Ġaut": 2965,
      "Ġammonium": 2966,
      "anta": 2967,
      "ance": 2968,
      "Ġct": 2969,
      "Ġclo": 2970,
      "Ġcho": 2971,
      "Ġcrystalline": 2972,
      "Ġcollagen": 2973,
      "Ġcottage": 2974,
      "Ġcerti": 2975,
      "Ġfig": 2976,
      "fir": 2977,
      "Ġpee": 2978,
      "Ġphy": 2979,
      "ore": 2980,
      "enadi": 2981,
      "lam": 2982,
      "ctone": 2983,
      "ily": 2984,
      "ilic": 2985,
      "umbo": 2986,
      "Ġmus": 2987,
      "Ġmain": 2988,
      "Ġmacadamia": 2989,
      "Ġwild": 2990,
      "Ġbottle": 2991,
      "ella": 2992,
      "elch": 2993,
      "ruste": 2994,
      "oltho": 2995,
      "ĠAgave": 2996,
      "ĠJose": 2997,
      "ĠJumbo": 2998,
      "amm": 2999,
      "ambled": 3000,
      "erve": 3001,
      "ervo": 3002,
      "ĠAntioxidant": 3003,
      "disti": 3004,
      "ĠCap": 3005,
      "ĠCollagen": 3006,
      "ĠCacao": 3007,
      "ĠCrock": 3008,
      "ĠBel": 3009,
      "ĠBran": 3010,
      "ĠBab": 3011,
      "ĠBerries": 3012,
      "ĠBoltho": 3013,
      "Ġpomegranate": 3014,
      "Ġpoppy": 3015,
      "redded": 3016,
      "ĠSkyr": 3017,
      "ĠServe": 3018,
      "rylic": 3019,
      "Ġmonk": 3020,
      "raisin": 3021,
      "Ġcider": 3022,
      "ĠPassion": 3023,
      "ĠPalla": 3024,
      "Ġtris": 3025,
      "ĠFashi": 3026,
      "ĠFig": 3027,
      "ĠFriendly": 3028,
      "ĠFact": 3029,
      "ĠFanta": 3030,
      "ĠMid": 3031,
      "ĠMeal": 3032,
      "ĠMuff": 3033,
      "Ġproduct": 3034,
      "Ġpropyl": 3035,
      "visions": 3036,
      "Ġcarmine": 3037,
      "Ġhorseradish": 3038,
      "Ġinosi": 3039,
      "acro": 3040,
      "acch": 3041,
      "liance": 3042,
      "dagascar": 3043,
      "ots": 3044,
      "Ġgrass": 3045,
      "eggie": 3046,
      "monk": 3047,
      "monoglyceride": 3048,
      "ĠWelch": 3049,
      "Ġmonopotassium": 3050,
      "Ġoregan": 3051,
      "Ġalliance": 3052,
      "ĠKruste": 3053,
      "ĠHome": 3054,
      "ĠHarvest": 3055,
      "ĠTw": 3056,
      "ĠTots": 3057,
      "ĠChocolatey": 3058,
      "Ġglucur": 3059,
      "ĠVinegar": 3060,
      "ĠVery": 3061,
      "ĠVeggie": 3062,
      "olyzed": 3063,
      "Ġhighly": 3064,
      "ĠProvisions": 3065,
      "ison": 3066,
      "ĠSpor": 3067,
      "ĠSpicy": 3068,
      "ggi": 3069,
      "cord": 3070,
      "less": 3071,
      "ĠCups": 3072,
      "Ġzero": 3073,
      "ĠCarbon": 3074,
      "fetti": 3075,
      "ĠMint": 3076,
      "ĠSeason": 3077,
      "Ġtripoly": 3078,
      "ĠReduced": 3079,
      "land": 3080,
      "ĠGoGo": 3081,
      "ĠGods": 3082,
      "grain": 3083,
      "Ġbha": 3084,
      "Ġretin": 3085,
      "Ġrefined": 3086,
      "263": 3087,
      "ĠKefir": 3088,
      "ĠPuree": 3089,
      "ĠPretzel": 3090,
      "ĠSqueez": 3091,
      "ĠRecipe": 3092,
      "Ġlb": 3093,
      "Ġbelgian": 3094,
      "ĠOnion": 3095,
      "ĠUn": 3096,
      "895": 3097,
      "ĠSuper": 3098,
      "ĠBetty": 3099,
      "053": 3100,
      "carnit": 3101,
      "ĠSnacks": 3102,
      "ĠArnold": 3103,
      "ĠSiggi": 3104,
      "tomenadi": 3105,
      "ĠCitrus": 3106,
      "ĠLove": 3107,
      "ĠSeeds": 3108,
      "ĠMultigrain": 3109,
      "caprylic": 3110,
      "Ġperoxide": 3111,
      "ĠCuervo": 3112,
      "ĠSandwi": 3113,
      "Ġrainfor": 3114,
      "ĠSmucker": 3115,
      "chovy": 3116,
      "ĠMoist": 3117,
      "Ġdutch": 3118,
      "ĠsqueeZ": 3119,
      "ĠEssenti": 3120,
      "hubarb": 3121,
      "paraben": 3122,
      "Ġinstant": 3123,
      "onolactone": 3124,
      "Ġscrambled": 3125,
      "Ġsaib": 3126,
      "Ġsilicon": 3127,
      "Ġautolyzed": 3128,
      "Ġcertified": 3129,
      "Ġpeel": 3130,
      "Ġphytomenadi": 3131,
      "ilicate": 3132,
      "Ġmaintain": 3133,
      "Ġwildflower": 3134,
      "Ġbottles": 3135,
      "distilled": 3136,
      "ĠCrocker": 3137,
      "ĠBaby": 3138,
      "ĠBolthouse": 3139,
      "ĠFashioned": 3140,
      "ĠFactory": 3141,
      "ĠMuffin": 3142,
      "Ġpropylparaben": 3143,
      "Ġinositol": 3144,
      "Ġoregano": 3145,
      "ĠKrusteaz": 3146,
      "Ġglucuronolactone": 3147,
      "Ġtripolyphosphate": 3148,
      "carnitine": 3149,
      "ĠSandwich": 3150,
      "Ġrainforest": 3151,
      "Ġphytomenadione": 3152,
      "'m": 3153,
      "04": 3154,
      "135": 3155,
      "316": 3156,
      "375": 3157,
      "49": 3158,
      "677": 3159,
      "73": 3160,
      "79": 3161,
      "727": 3162,
      "783": 3163,
      "86": 3164,
      "977": 3165,
      "909": 3166,
      "965": 3167,
      "947": 3168,
      "AG": 3169,
      "AM": 3170,
      "Cru": 3171,
      "La": 3172,
      "Lean": 3173,
      "Oh": 3174,
      "Sweet": 3175,
      "agar": 3176,
      "aid": 3177,
      "bd": 3178,
      "bin": 3179,
      "bra": 3180,
      "banana": 3181,
      "bread": 3182,
      "bstitu": 3183,
      "cred": 3184,
      "cocoa": 3185,
      "ccin": 3186,
      "cadi": 3187,
      "cooked": 3188,
      "dor": 3189,
      "ding": 3190,
      "dry": 3191,
      "dles": 3192,
      "eo": 3193,
      "eth": 3194,
      "ears": 3195,
      "fter": 3196,
      "gon": 3197,
      "gal": 3198,
      "gof": 3199,
      "gern": 3200,
      "ha": 3201,
      "ib": 3202,
      "ir": 3203,
      "jack": 3204,
      "kin": 3205,
      "lum": 3206,
      "nie": 3207,
      "nation": 3208,
      "ole": 3209,
      "over": 3210,
      "ps": 3211,
      "rÃ": 3212,
      "rue": 3213,
      "stock": 3214,
      "tle": 3215,
      "tine": 3216,
      "thiamin": 3217,
      "uted": 3218,
      "uric": 3219,
      "ucumber": 3220,
      "vanilla": 3221,
      "vinegar": 3222,
      "wer": 3223,
      "wing": 3224,
      "yder": 3225,
      "zon": 3226,
      "¨me": 3227,
      "ÅĮ": 3228,
      "âĢ": 3229,
      "Ġar": 3230,
      "Ġho": 3231,
      "Ġvel": 3232,
      "Ġ75": 3233,
      "ĠâĢ": 3234,
      "are": 3235,
      "ares": 3236,
      "onuric": 3237,
      "alap": 3238,
      "alian": 3239,
      "alpha": 3240,
      "teri": 3241,
      "teel": 3242,
      "tearate": 3243,
      "inos": 3244,
      "inbow": 3245,
      "Ġsim": 3246,
      "Ġstock": 3247,
      "riotic": 3248,
      "tation": 3249,
      "tane": 3250,
      "erine": 3251,
      "Ġacer": 3252,
      "citric": 3253,
      "urkey": 3254,
      "ann": 3255,
      "anover": 3256,
      "Ġcereal": 3257,
      "Ġcrystal": 3258,
      "Ġclam": 3259,
      "Ġcucumber": 3260,
      "sea": 3261,
      "leho": 3262,
      "tralian": 3263,
      "edium": 3264,
      "ats": 3265,
      "Ġpris": 3266,
      "Ġpart": 3267,
      "Ġpick": 3268,
      "Ġpassion": 3269,
      "Ġplum": 3270,
      "orted": 3271,
      "orade": 3272,
      "eno": 3273,
      "eebler": 3274,
      "routed": 3275,
      "tenmann": 3276,
      "Ġmin": 3277,
      "Ġmoly": 3278,
      "Ġmorsel": 3279,
      "Ġoli": 3280,
      "hipped": 3281,
      "Ġbread": 3282,
      "Ġbrain": 3283,
      "Ġbasil": 3284,
      "ĠAle": 3285,
      "ĠAus": 3286,
      "ĠAss": 3287,
      "ĠJamm": 3288,
      "amine": 3289,
      "amily": 3290,
      "ĠIced": 3291,
      "ĠImi": 3292,
      "Ġtopping": 3293,
      "ĠAnnie": 3294,
      "ĠIngleho": 3295,
      "diester": 3296,
      "dish": 3297,
      "ĠCane": 3298,
      "ĠCas": 3299,
      "ĠCanola": 3300,
      "ĠCran": 3301,
      "ĠCrack": 3302,
      "ĠCrÃ": 3303,
      "ĠBake": 3304,
      "ĠBow": 3305,
      "ĠBeet": 3306,
      "ĠBits": 3307,
      "ĠBalsamic": 3308,
      "ĠBalan": 3309,
      "ical": 3310,
      "Ġpower": 3311,
      "Ġjam": 3312,
      "Ġjack": 3313,
      "Ġjalap": 3314,
      "reo": 3315,
      "reats": 3316,
      "ĠStar": 3317,
      "ĠStre": 3318,
      "ĠSauce": 3319,
      "ĠStick": 3320,
      "ĠSteel": 3321,
      "ragon": 3322,
      "ash": 3323,
      "Ġwheatgra": 3324,
      "ĠPurified": 3325,
      "ĠPumpkin": 3326,
      "ĠPlan": 3327,
      "ĠPAM": 3328,
      "ĠFit": 3329,
      "ĠFrit": 3330,
      "ĠFAG": 3331,
      "ĠFamily": 3332,
      "ĠMalt": 3333,
      "ĠMade": 3334,
      "ĠMills": 3335,
      "ĠMeat": 3336,
      "Ġdill": 3337,
      "Ġdha": 3338,
      "Ġdragon": 3339,
      "Ġiodi": 3340,
      "ghty": 3341,
      "Ġsubstitu": 3342,
      "Ġsuccin": 3343,
      "Ġselen": 3344,
      "bles": 3345,
      "ĠDole": 3346,
      "ĠDÅĮ": 3347,
      "ĠGen": 3348,
      "ĠGrow": 3349,
      "lized": 3350,
      "ĠOne": 3351,
      "ĠOreo": 3352,
      "esty": 3353,
      "wder": 3354,
      "ĠWell": 3355,
      "turmeric": 3356,
      "turkey": 3357,
      "Ġmonoester": 3358,
      "Ġoreo": 3359,
      "Ġalso": 3360,
      "Ġallulose": 3361,
      "Ġalgal": 3362,
      "ĠKarm": 3363,
      "ĠKale": 3364,
      "ĠKiwi": 3365,
      "ĠKeebler": 3366,
      "Ġincluding": 3367,
      "Ġlight": 3368,
      "ĠHori": 3369,
      "ĠHorm": 3370,
      "ĠHanover": 3371,
      "Ġ23": 3372,
      "Ġ28": 3373,
      "Ġxct": 3374,
      "ĠTres": 3375,
      "ĠTang": 3376,
      "ĠTrue": 3377,
      "ĠTurkey": 3378,
      "ĠTreats": 3379,
      "Ġpureeee": 3380,
      "ĠYellow": 3381,
      "ĠYears": 3382,
      "Ġspread": 3383,
      "quick": 3384,
      "ffer": 3385,
      "ado": 3386,
      "ids": 3387,
      "122": 3388,
      "Ġpolydextrose": 3389,
      "Ġanhydro": 3390,
      "Ġanchovy": 3391,
      "Ġcyanocobalamine": 3392,
      "Ġbenzoic": 3393,
      "Ġ33": 3394,
      "Ġoctane": 3395,
      "Ġradish": 3396,
      "ĠSpring": 3397,
      "ĠSprinkle": 3398,
      "ĠMarble": 3399,
      "ĠMartin": 3400,
      "ĠMarshmallow": 3401,
      "Ġlacto": 3402,
      "Ġcasein": 3403,
      "mart": 3404,
      "ketonuric": 3405,
      "ĠEntenmann": 3406,
      "254": 3407,
      "ĠSodium": 3408,
      "Ġpeppermint": 3409,
      "ĠTotal": 3410,
      "ĠTopo": 3411,
      "Ġshredded": 3412,
      "753": 3413,
      "aves": 3414,
      "Ġturkey": 3415,
      "ĠMilkfat": 3416,
      "ĠCarnation": 3417,
      "ĠPound": 3418,
      "ĠPomegranate": 3419,
      "ĠPoppy": 3420,
      "ĠPowder": 3421,
      "ĠEggland": 3422,
      "579": 3423,
      "ĠSemi": 3424,
      "Ġmarshmallow": 3425,
      "ĠQuick": 3426,
      "lanched": 3427,
      "ĠZesty": 3428,
      "ĠGoLean": 3429,
      "ĠYoCru": 3430,
      "ĠLimeade": 3431,
      "Ġbitartrate": 3432,
      "ĠGatorade": 3433,
      "Ġrebaudioside": 3434,
      "Ġreconstituted": 3435,
      "ĠSquares": 3436,
      "ĠMighty": 3437,
      "ĠKet": 3438,
      "421": 3439,
      "ĠPatriotic": 3440,
      "ĠBisquick": 3441,
      "ĠSnyder": 3442,
      "Ġnutmeg": 3443,
      "cucumber": 3444,
      "usel": 3445,
      "Ġtigern": 3446,
      "303": 3447,
      "arina": 3448,
      "ĠBobo": 3449,
      "696": 3450,
      "ĠSlices": 3451,
      "ĠPowell": 3452,
      "ĠLaLa": 3453,
      "ĠExp": 3454,
      "655": 3455,
      "ĠRainbow": 3456,
      "ĠHealth": 3457,
      "391": 3458,
      "581": 3459,
      "Ġcoffeefruit": 3460,
      "ĠShell": 3461,
      "ĠMahoney": 3462,
      "ĠSeltzerade": 3463,
      "ĠJustin": 3464,
      "ĠCitric": 3465,
      "ĠConcentrate": 3466,
      "ĠConcord": 3467,
      "ĠChico": 3468,
      "ĠThat": 3469,
      "ĠSeedless": 3470,
      "buttermilk": 3471,
      "alanine": 3472,
      "Ġcupcake": 3473,
      "ĠMonster": 3474,
      "Ġphenylketonuric": 3475,
      "Ġphenylalanine": 3476,
      "907": 3477,
      "lbs": 3478,
      "ĠComstock": 3479,
      "ĠCrumble": 3480,
      "ĠBloody": 3481,
      "ĠFunfetti": 3482,
      "ĠDelights": 3483,
      "Ġclover": 3484,
      "ĠAgaves": 3485,
      "ĠCapri": 3486,
      "ĠPassionfruit": 3487,
      "Ġtristearate": 3488,
      "ĠMiddles": 3489,
      "accharin": 3490,
      "ĠSports": 3491,
      "ĠCarbonated": 3492,
      "ĠSeasons": 3493,
      "Ġretinol": 3494,
      "ĠUnsweetened": 3495,
      "ĠEssentials": 3496,
      "bdate": 3497,
      "binado": 3498,
      "cadian": 3499,
      "gofructose": 3500,
      "wingin": 3501,
      "Ġvelvet": 3502,
      "Ġ750": 3503,
      "ĠâĢĵ": 3504,
      "Ġsimple": 3505,
      "Ġacerola": 3506,
      "Ġcrystallized": 3507,
      "Ġpristine": 3508,
      "Ġpickle": 3509,
      "Ġmolybdate": 3510,
      "Ġoligofructose": 3511,
      "ĠAustralian": 3512,
      "ĠAssorted": 3513,
      "ĠJammers": 3514,
      "ĠImitation": 3515,
      "ĠInglehoffer": 3516,
      "ĠCascadian": 3517,
      "ĠCrÃ¨me": 3518,
      "ĠBowl": 3519,
      "ĠBalanced": 3520,
      "Ġjalapeno": 3521,
      "ĠStreusel": 3522,
      "ĠSticks": 3523,
      "Ġwheatgrass": 3524,
      "ĠPlant": 3525,
      "ĠFAGE": 3526,
      "Ġdragonfruit": 3527,
      "Ġiodide": 3528,
      "Ġsubstitute": 3529,
      "Ġsuccinic": 3530,
      "Ġselenite": 3531,
      "ĠGrowing": 3532,
      "ĠWellness": 3533,
      "ĠKarma": 3534,
      "ĠHorizon": 3535,
      "ĠHormel": 3536,
      "ĠTangerine": 3537,
      "Ġanhydrous": 3538,
      "ĠYoCrunch": 3539,
      "Ġtigernut": 3540,
      "\"/": 3541,
      "018": 3542,
      "032": 3543,
      "037": 3544,
      "085": 3545,
      "216": 3546,
      "211": 3547,
      "219": 3548,
      "462": 3549,
      "483": 3550,
      "51": 3551,
      "59": 3552,
      "526": 3553,
      "509": 3554,
      "524": 3555,
      "63": 3556,
      "64": 3557,
      "615": 3558,
      "632": 3559,
      "78": 3560,
      "711": 3561,
      "742": 3562,
      "765": 3563,
      "704": 3564,
      "84": 3565,
      "88": 3566,
      "818": 3567,
      "99": 3568,
      "Bar": 3569,
      "Baked": 3570,
      "Fu": 3571,
      "Flavor": 3572,
      "Good": 3573,
      "IC": 3574,
      "IFE": 3575,
      "Lime": 3576,
      "Macro": 3577,
      "Pel": 3578,
      "PIC": 3579,
      "Raspberry": 3580,
      "TR": 3581,
      "Wheat": 3582,
      "WTR": 3583,
      "ZE": 3584,
      "ZZE": 3585,
      "aur": 3586,
      "awn": 3587,
      "ased": 3588,
      "adagascar": 3589,
      "by": 3590,
      "bro": 3591,
      "bak": 3592,
      "beet": 3593,
      "buck": 3594,
      "bbles": 3595,
      "ca": 3596,
      "cy": 3597,
      "chi": 3598,
      "cot": 3599,
      "color": 3600,
      "cress": 3601,
      "cracked": 3602,
      "dam": 3603,
      "ele": 3604,
      "fla": 3605,
      "gr": 3606,
      "gur": 3607,
      "gel": 3608,
      "gry": 3609,
      "gium": 3610,
      "hro": 3611,
      "imal": 3612,
      "ji": 3613,
      "jor": 3614,
      "jac": 3615,
      "kil": 3616,
      "kers": 3617,
      "lfite": 3618,
      "ma": 3619,
      "men": 3620,
      "mated": 3621,
      "more": 3622,
      "no": 3623,
      "nic": 3624,
      "ob": 3625,
      "oon": 3626,
      "pt": 3627,
      "pur": 3628,
      "pen": 3629,
      "pose": 3630,
      "pern": 3631,
      "pagne": 3632,
      "pumpkin": 3633,
      "pjack": 3634,
      "pare": 3635,
      "rd": 3636,
      "rhubarb": 3637,
      "sg": 3638,
      "star": 3639,
      "sli": 3640,
      "saccharin": 3641,
      "tone": 3642,
      "thi": 3643,
      "ttu": 3644,
      "ux": 3645,
      "uch": 3646,
      "unce": 3647,
      "uis": 3648,
      "ubi": 3649,
      "ved": 3650,
      "valt": 3651,
      "xx": 3652,
      "xtur": 3653,
      "yeast": 3654,
      "zar": 3655,
      "zab": 3656,
      "£e": 3657,
      "§ai": 3658,
      "Ã§ai": 3659,
      "Ġ.": 3660,
      "Ġhi": 3661,
      "Ġru": 3662,
      "Ġron": 3663,
      "Ġrum": 3664,
      "Ġtan": 3665,
      "artar": 3666,
      "arlic": 3667,
      "arty": 3668,
      "onic": 3669,
      "onine": 3670,
      "onberry": 3671,
      "onjac": 3672,
      "tesi": 3673,
      "tead": 3674,
      "sunflower": 3675,
      "ina": 3676,
      "ind": 3677,
      "iny": 3678,
      "inine": 3679,
      "Ġshi": 3680,
      "Ġswirl": 3681,
      "Ġstick": 3682,
      "Ġsilicate": 3683,
      "Ġskin": 3684,
      "Ġsmart": 3685,
      "Ġswingin": 3686,
      "rie": 3687,
      "riann": 3688,
      "rived": 3689,
      "confec": 3690,
      "tas": 3691,
      "tachi": 3692,
      "tatas": 3693,
      "ering": 3694,
      "Ġameric": 3695,
      "Ġacai": 3696,
      "ĠaÃ§ai": 3697,
      "til": 3698,
      "tix": 3699,
      "cesters": 3700,
      "cept": 3701,
      "Ġcan": 3702,
      "Ġcut": 3703,
      "Ġcacao": 3704,
      "selen": 3705,
      "Ġflo": 3706,
      "Ġfeta": 3707,
      "Ġfarina": 3708,
      "lement": 3709,
      "legr": 3710,
      "edal": 3711,
      "Ġpink": 3712,
      "Ġpig": 3713,
      "orte": 3714,
      "orcesters": 3715,
      "enison": 3716,
      "eeded": 3717,
      "root": 3718,
      "last": 3719,
      "zest": 3720,
      "Ġnug": 3721,
      "ilberry": 3722,
      "tional": 3723,
      "tionery": 3724,
      "umpern": 3725,
      "rispi": 3726,
      "Ġmoz": 3727,
      "Ġmaking": 3728,
      "Ġmedium": 3729,
      "Ġmadagascar": 3730,
      "Ġmsg": 3731,
      "Ġmering": 3732,
      "Ġodor": 3733,
      "Ġounce": 3734,
      "Ġwhipped": 3735,
      "Ġworcesters": 3736,
      "his": 3737,
      "hire": 3738,
      "hist": 3739,
      "Ġbo": 3740,
      "Ġbre": 3741,
      "Ġbac": 3742,
      "Ġblanched": 3743,
      "losion": 3744,
      "uesli": 3745,
      "siag": 3746,
      "ely": 3747,
      "elbak": 3748,
      "hose": 3749,
      "ĠNat": 3750,
      "ĠNood": 3751,
      "ĠNug": 3752,
      "Ġgl": 3753,
      "oltage": 3754,
      "ĠAcai": 3755,
      "ĠAfter": 3756,
      "ĠJack": 3757,
      "ama": 3758,
      "ammonium": 3759,
      "ampagne": 3760,
      "ĠIt": 3761,
      "ĠIZZE": 3762,
      "ĠAngel": 3763,
      "cha": 3764,
      "cheese": 3765,
      "chup": 3766,
      "anada": 3767,
      "heavy": 3768,
      "Ġsourdough": 3769,
      "ĠCs": 3770,
      "ĠCoco": 3771,
      "ĠCultured": 3772,
      "ĠCage": 3773,
      "ĠCotton": 3774,
      "ĠCele": 3775,
      "ĠCanada": 3776,
      "ĠBul": 3777,
      "ĠBag": 3778,
      "ĠBund": 3779,
      "ĠBaker": 3780,
      "ĠBunch": 3781,
      "ĠBoos": 3782,
      "ĠBasil": 3783,
      "ĠBriann": 3784,
      "ĠBlast": 3785,
      "Ġvapor": 3786,
      "Ġpouch": 3787,
      "Ġwatermelon": 3788,
      "Ġwatercress": 3789,
      "Ġlettu": 3790,
      "ĠSol": 3791,
      "ĠStra": 3792,
      "ĠSli": 3793,
      "ĠStur": 3794,
      "ĠSou": 3795,
      "ĠSweetened": 3796,
      "ĠSaves": 3797,
      "ĠSkil": 3798,
      "ĠStix": 3799,
      "ĠSeeded": 3800,
      "spinach": 3801,
      "cent": 3802,
      "Ġmonterey": 3803,
      "asy": 3804,
      "aster": 3805,
      "ĠPeg": 3806,
      "ĠPac": 3807,
      "ĠPhosphoric": 3808,
      "ĠPork": 3809,
      "ĠPumpern": 3810,
      "Ġthist": 3811,
      "Ġthose": 3812,
      "ĠFI": 3813,
      "ĠFella": 3814,
      "ĠMal": 3815,
      "ĠMolasse": 3816,
      "ĠMag": 3817,
      "ĠMom": 3818,
      "ĠMostess": 3819,
      "ĠMacadamia": 3820,
      "ĠMore": 3821,
      "ĠMacro": 3822,
      "ĠMedal": 3823,
      "ĠMuesli": 3824,
      "ĠMama": 3825,
      "Ġexcept": 3826,
      "viro": 3827,
      "Ġcardam": 3828,
      "Ġcarob": 3829,
      "Ġextractive": 3830,
      "tamins": 3831,
      "Ġdressing": 3832,
      "Ġdrop": 3833,
      "acine": 3834,
      "acaro": 3835,
      "Ġsulfite": 3836,
      "Ġsequ": 3837,
      "Ġdijon": 3838,
      "ĠDry": 3839,
      "ĠDried": 3840,
      "ĠDis": 3841,
      "ĠDawn": 3842,
      "ittle": 3843,
      "ĠGoo": 3844,
      "ĠGround": 3845,
      "ĠGrit": 3846,
      "ĠGold": 3847,
      "ĠGarlic": 3848,
      "Ġcanebeet": 3849,
      "Ġnonpare": 3850,
      "lizab": 3851,
      "ves": 3852,
      "ĠOf": 3853,
      "ĠOvalt": 3854,
      "dae": 3855,
      "otinate": 3856,
      "cheddar": 3857,
      "Ġchocolatey": 3858,
      "ĠLat": 3859,
      "ĠLoo": 3860,
      "ĠLIFE": 3861,
      "ĠLuis": 3862,
      "ĠLittle": 3863,
      "ĠWith": 3864,
      "ĠWaf": 3865,
      "Ġ65": 3866,
      "Ġencap": 3867,
      "unbleached": 3868,
      "ungry": 3869,
      "melet": 3870,
      "Ġ42": 3871,
      "Ġ46": 3872,
      "Ġaller": 3873,
      "Ġchain": 3874,
      "ĠKring": 3875,
      "ĠKrispi": 3876,
      "get": 3877,
      "Ġkonjac": 3878,
      "Ġlipoly": 3879,
      "Ġlima": 3880,
      "Ġpurple": 3881,
      "ĠHa": 3882,
      "ĠHorseradish": 3883,
      "ĠHungry": 3884,
      "Ġ25": 3885,
      "Ġ27": 3886,
      "Ġxxx": 3887,
      "ĠTra": 3888,
      "ĠTub": 3889,
      "ĠTime": 3890,
      "ĠTartar": 3891,
      "ĠTonic": 3892,
      "ĠTiny": 3893,
      "ĠThis": 3894,
      "ayan": 3895,
      "ĠRoll": 3896,
      "ĠRock": 3897,
      "ĠRub": 3898,
      "ĠRhubarb": 3899,
      "ĠRubi": 3900,
      "ĠRacine": 3901,
      "keberry": 3902,
      "Ġspelt": 3903,
      "Ġsprouted": 3904,
      "Ġguava": 3905,
      "ĠVoltage": 3906,
      "malayan": 3907,
      "ffon": 3908,
      "ffle": 3909,
      "Ġchiffon": 3910,
      "Ġcheesecake": 3911,
      "ĠEl": 3912,
      "ĠEver": 3913,
      "ĠEPIC": 3914,
      "ĠEasy": 3915,
      "ĠElizab": 3916,
      "idz": 3917,
      "121": 3918,
      "ĠYogurtZ": 3919,
      "sorbic": 3920,
      "kist": 3921,
      "ĠLives": 3922,
      "Ġpolyphosphate": 3923,
      "Ġpolynic": 3924,
      "Ġuncured": 3925,
      "Ġunbro": 3926,
      "ĠWaters": 3927,
      "iss": 3928,
      "isins": 3929,
      "isine": 3930,
      "istachi": 3931,
      "Ġ89": 3932,
      "Ġanimal": 3933,
      "Ġcaramelized": 3934,
      "Ġ375": 3935,
      "ssed": 3936,
      "Ġ101": 3937,
      "ĠFroot": 3938,
      "Ġmayonnaise": 3939,
      "Ġbeverage": 3940,
      "vers": 3941,
      "vered": 3942,
      "ĠSplas": 3943,
      "ĠSprite": 3944,
      "ĠSpoon": 3945,
      "based": 3946,
      "mier": 3947,
      "ĠOatnut": 3948,
      "ĠMary": 3949,
      "ĠMarin": 3950,
      "ĠPecan": 3951,
      "ĠPebbles": 3952,
      "pomegranate": 3953,
      "Ġfrozen": 3954,
      "ĠCheddar": 3955,
      "kets": 3956,
      "ĠCakerie": 3957,
      "ĠEnriched": 3958,
      "ĠEnviro": 3959,
      "118": 3960,
      "osilicate": 3961,
      "ĠToaster": 3962,
      "Ġderived": 3963,
      "Ġfermen": 3964,
      "lescent": 3965,
      "ĠFruity": 3966,
      "Ġaluminosilicate": 3967,
      "Ġsteel": 3968,
      "ĠApples": 3969,
      "ĠAppley": 3970,
      "Ġcrispy": 3971,
      "755": 3972,
      "759": 3973,
      "Ġturbinado": 3974,
      "ĠBig": 3975,
      "Ġ150": 3976,
      "669": 3977,
      "itake": 3978,
      "ĠCarton": 3979,
      "lets": 3980,
      "Ġpearlescent": 3981,
      "ĠMinis": 3982,
      "286": 3983,
      "ĠSeasoning": 3984,
      "ĠSmoothies": 3985,
      "Ġmarjor": 3986,
      "ĠGoodness": 3987,
      "ĠSmoothieZ": 3988,
      "ĠZone": 3989,
      "ĠZBAR": 3990,
      "ĠBrownberry": 3991,
      "ĠGoMacro": 3992,
      "182": 3993,
      "Ġcom": 3994,
      "Ġcoated": 3995,
      "838": 3996,
      "156": 3997,
      "321": 3998,
      "Ġquinine": 3999,
      "ĠSundae": 4000,
      "ĠSunkist": 4001,
      "ĠDanish": 4002,
      "steine": 4003,
      "Ġtextur": 4004,
      "onnay": 4005,
      "ĠKID": 4006,
      "plete": 4007,
      "ickel": 4008,
      "ĠPurpose": 4009,
      "ĠPurely": 4010,
      "Ġmixed": 4011,
      "ĠPremier": 4012,
      "ĠSimple": 4013,
      "348": 4014,
      "Ġofmonocalcium": 4015,
      "ĠRea": 4016,
      "ĠReconstituted": 4017,
      "231": 4018,
      "364": 4019,
      "ardonnay": 4020,
      "rowroot": 4021,
      "ĠBoy": 4022,
      "ĠFlapjack": 4023,
      "651": 4024,
      "gerine": 4025,
      "ĠCornbread": 4026,
      "ĠRaisins": 4027,
      "Ġhemp": 4028,
      "sulated": 4029,
      "lacto": 4030,
      "caramel": 4031,
      "ĠPotassium": 4032,
      "ĠMadagascar": 4033,
      "Ġprocessed": 4034,
      "ĠpurÃ£e": 4035,
      "ĠLifeway": 4036,
      "ĠCitrate": 4037,
      "ĠCode": 4038,
      "ĠCoke": 4039,
      "ĠCovered": 4040,
      "ĠTollhouse": 4041,
      "ĠPeppermint": 4042,
      "ĠHomestead": 4043,
      "Ġsquash": 4044,
      "Ġmica": 4045,
      "ĠCount": 4046,
      "Ġconfectionery": 4047,
      "ĠLovers": 4048,
      "ĠRoasted": 4049,
      "ĠRoarin": 4050,
      "ĠVitamins": 4051,
      "ĠChia": 4052,
      "ĠThree": 4053,
      "061": 4054,
      "081": 4055,
      "761": 4056,
      "801": 4057,
      "omethi": 4058,
      "Ġcups": 4059,
      "ĠCuisine": 4060,
      "ĠBaird": 4061,
      "ĠMonterey": 4062,
      "Ġrainbow": 4063,
      "ĠSmuckers": 4064,
      "ĠCrispy": 4065,
      "ĠComplete": 4066,
      "ĠSpices": 4067,
      "Ġaged": 4068,
      "Ġagent": 4069,
      "Ġchopped": 4070,
      "Ġchokeberry": 4071,
      "Ġmust": 4072,
      "Ġmushro": 4073,
      "ĠBelgian": 4074,
      "ĠBelgium": 4075,
      "ĠBrand": 4076,
      "ĠTwo": 4077,
      "ĠSqueeza": 4078,
      "ĠOnions": 4079,
      "bration": 4080,
      "ibb": 4081,
      "Ġarrowroot": 4082,
      "Ġhot": 4083,
      "terial": 4084,
      "inosaur": 4085,
      "Ġminis": 4086,
      "ĠCracker": 4087,
      "ĠStarbuck": 4088,
      "ĠFrittatas": 4089,
      "ĠMadeGood": 4090,
      "ĠGeneral": 4091,
      "Ġlactoester": 4092,
      "ĠPoppyseed": 4093,
      "ĠKetchup": 4094,
      "Fusion": 4095,
      "Flavored": 4096,
      "Pellegr": 4097,
      "cysteine": 4098,
      "purple": 4099,
      "zarella": 4100,
      "Ġhimalayan": 4101,
      "Ġruby": 4102,
      "Ġtangerine": 4103,
      "tesian": 4104,
      "Ġshiitake": 4105,
      "Ġsmartwater": 4106,
      "confectioner": 4107,
      "Ġamerican": 4108,
      "selenomethi": 4109,
      "Ġfloz": 4110,
      "lementine": 4111,
      "Ġpigment": 4112,
      "Ġnugget": 4113,
      "Ġmozzarella": 4114,
      "Ġmeringue": 4115,
      "Ġworcestershire": 4116,
      "Ġbacterial": 4117,
      "siago": 4118,
      "elbakkers": 4119,
      "ĠNugo": 4120,
      "ĠCelebration": 4121,
      "ĠBull": 4122,
      "ĠBundt": 4123,
      "ĠBunches": 4124,
      "ĠBoosted": 4125,
      "ĠBrianna": 4126,
      "Ġpouches": 4127,
      "Ġlettuce": 4128,
      "ĠSlim": 4129,
      "ĠSkillets": 4130,
      "ĠPackets": 4131,
      "ĠPumpernickel": 4132,
      "Ġthistle": 4133,
      "ĠMolasses": 4134,
      "ĠMagic": 4135,
      "ĠMacroBar": 4136,
      "Ġcardamom": 4137,
      "acaroon": 4138,
      "Ġsequin": 4139,
      "ĠGooey": 4140,
      "ĠGrits": 4141,
      "Ġnonpareil": 4142,
      "ĠOvaltine": 4143,
      "ĠLoops": 4144,
      "ĠLIFEWTR": 4145,
      "ĠWafelbakkers": 4146,
      "Ġencapsulated": 4147,
      "Ġallergen": 4148,
      "ĠKringles": 4149,
      "ĠKrispies": 4150,
      "Ġlipolyzed": 4151,
      "ĠRockstar": 4152,
      "ĠRuby": 4153,
      "ĠRubicon": 4154,
      "ĠElizabeth": 4155,
      "Ġpolynicotinate": 4156,
      "Ġunbromated": 4157,
      "istachio": 4158,
      "ĠSplash": 4159,
      "Ġfermented": 4160,
      "ĠCartons": 4161,
      "Ġmarjoram": 4162,
      "Ġtextured": 4163,
      "Ġmushroom": 4164,
      "ĠStarbucks": 4165,
      "Pellegrino": 4166,
      "selenomethionine": 4167
    },
    "merges": [
      [
        "a",
        "r"
      ],
      [
        "o",
        "n"
      ],
      [
        "a",
        "l"
      ],
      [
        "t",
        "e"
      ],
      [
        "s",
        "u"
      ],
      [
        "g",
        "ar"
      ],
      [
        "su",
        "gar"
      ],
      [
        "i",
        "n"
      ],
      [
        "\"",
        ":"
      ],
      [
        "d",
        "e"
      ],
      [
        ",",
        "\""
      ],
      [
        "Ġ",
        "s"
      ],
      [
        "r",
        "i"
      ],
      [
        "c",
        "on"
      ],
      [
        "t",
        "a"
      ],
      [
        "e",
        "r"
      ],
      [
        "Ġ",
        "a"
      ],
      [
        "t",
        "i"
      ],
      [
        "c",
        "i"
      ],
      [
        "c",
        "e"
      ],
      [
        "Ġ",
        "\\"
      ],
      [
        "u",
        "r"
      ],
      [
        "a",
        "n"
      ],
      [
        "Ġ",
        "c"
      ],
      [
        "in",
        "s"
      ],
      [
        "ta",
        "ins"
      ],
      [
        "a",
        "te"
      ],
      [
        "con",
        "tains"
      ],
      [
        "s",
        "e"
      ],
      [
        "d",
        "de"
      ],
      [
        "Ġ",
        "sugar"
      ],
      [
        "Ġ",
        "f"
      ],
      [
        "l",
        "e"
      ],
      [
        "t",
        "r"
      ],
      [
        "e",
        "d"
      ],
      [
        "f",
        "i"
      ],
      [
        "a",
        "t"
      ],
      [
        "sugar",
        "s"
      ],
      [
        "Ġ",
        "p"
      ],
      [
        "o",
        "r"
      ],
      [
        "e",
        "n"
      ],
      [
        "dde",
        "d"
      ],
      [
        "e",
        "e"
      ],
      [
        "r",
        "o"
      ],
      [
        "te",
        "n"
      ],
      [
        "l",
        "a"
      ],
      [
        "f",
        "al"
      ],
      [
        "fal",
        "se"
      ],
      [
        "Ġs",
        "o"
      ],
      [
        "c",
        "t"
      ],
      [
        "z",
        "e"
      ],
      [
        "w",
        "ee"
      ],
      [
        "Ġ",
        "("
      ],
      [
        "wee",
        "ten"
      ],
      [
        "ar",
        "ti"
      ],
      [
        "Ġ",
        "n"
      ],
      [
        "ci",
        "al"
      ],
      [
        "i",
        "l"
      ],
      [
        "fi",
        "cial"
      ],
      [
        "arti",
        "ficial"
      ],
      [
        "ti",
        "on"
      ],
      [
        "u",
        "m"
      ],
      [
        "weeten",
        "er"
      ],
      [
        "ri",
        "s"
      ],
      [
        "u",
        "t"
      ],
      [
        "te",
        "d"
      ],
      [
        "ris",
        "k"
      ],
      [
        "in",
        "g"
      ],
      [
        "Ġ",
        "m"
      ],
      [
        "Ġ",
        "o"
      ],
      [
        "Ġ",
        "w"
      ],
      [
        "at",
        "ur"
      ],
      [
        "on",
        "e"
      ],
      [
        "Ġa",
        "dded"
      ],
      [
        "]",
        ",\""
      ],
      [
        "s",
        "weetener"
      ],
      [
        "\":",
        "\""
      ],
      [
        "\":",
        "["
      ],
      [
        "atur",
        "al"
      ],
      [
        "c",
        "ted"
      ],
      [
        "te",
        "cted"
      ],
      [
        "de",
        "tected"
      ],
      [
        "r",
        "ed"
      ],
      [
        "h",
        "i"
      ],
      [
        "Ġ",
        "b"
      ],
      [
        "l",
        "o"
      ],
      [
        "u",
        "e"
      ],
      [
        "t",
        "o"
      ],
      [
        "s",
        "i"
      ],
      [
        "e",
        "l"
      ],
      [
        "\"",
        ",\""
      ],
      [
        "N",
        "one"
      ],
      [
        "h",
        "o"
      ],
      [
        "r",
        "u"
      ],
      [
        "tr",
        "ue"
      ],
      [
        "Ġ",
        "N"
      ],
      [
        "e",
        "x"
      ],
      [
        "Ġ",
        "g"
      ],
      [
        "en",
        "t"
      ],
      [
        "i",
        "ent"
      ],
      [
        "red",
        "ient"
      ],
      [
        "o",
        "l"
      ],
      [
        "Ġa",
        "s"
      ],
      [
        "ut",
        "ri"
      ],
      [
        "1",
        "0"
      ],
      [
        "la",
        "v"
      ],
      [
        "Ġ",
        "A"
      ],
      [
        ")",
        ","
      ],
      [
        "Ġ",
        "J"
      ],
      [
        "redient",
        "s"
      ],
      [
        "P",
        "ro"
      ],
      [
        "a",
        "m"
      ],
      [
        "Ġ",
        "I"
      ],
      [
        "Ġ",
        "to"
      ],
      [
        "t",
        "al"
      ],
      [
        "er",
        "v"
      ],
      [
        "ĠN",
        "utri"
      ],
      [
        "ĠNutri",
        "tion"
      ],
      [
        "ĠI",
        "n"
      ],
      [
        "d",
        "u"
      ],
      [
        "10",
        "0"
      ],
      [
        "ĠA",
        "n"
      ],
      [
        "du",
        "ct"
      ],
      [
        "ĠIn",
        "g"
      ],
      [
        "Ġs",
        "erv"
      ],
      [
        "Ġserv",
        "ing"
      ],
      [
        "S",
        "O"
      ],
      [
        "y",
        "ze"
      ],
      [
        "Ġ",
        "risk"
      ],
      [
        "al",
        "yze"
      ],
      [
        "si",
        "ze"
      ],
      [
        "ĠJ",
        "SO"
      ],
      [
        "Pro",
        "duct"
      ],
      [
        "Ġto",
        "tal"
      ],
      [
        "ĠAn",
        "alyze"
      ],
      [
        "ĠIng",
        "redients"
      ],
      [
        "ĠJSO",
        "N"
      ],
      [
        "c",
        "h"
      ],
      [
        "d",
        "i"
      ],
      [
        "Ġ",
        "-"
      ],
      [
        "an",
        "a"
      ],
      [
        "\":[",
        "],\""
      ],
      [
        "Ġo",
        "il"
      ],
      [
        "lav",
        "or"
      ],
      [
        "h",
        "e"
      ],
      [
        "al",
        "t"
      ],
      [
        "ci",
        "d"
      ],
      [
        "Ġf",
        "lavor"
      ],
      [
        "Ġa",
        "cid"
      ],
      [
        "n",
        "ce"
      ],
      [
        "p",
        "l"
      ],
      [
        "dde",
        "n"
      ],
      [
        "en",
        "d"
      ],
      [
        "n",
        "atural"
      ],
      [
        "v",
        "el"
      ],
      [
        "\"",
        "}"
      ],
      [
        ".",
        "\"}"
      ],
      [
        "<",
        "|"
      ],
      [
        "a",
        "dded"
      ],
      [
        "{",
        "\""
      ],
      [
        "|",
        ">"
      ],
      [
        "Ġ",
        "{\""
      ],
      [
        "de",
        "nce"
      ],
      [
        "con",
        "fi"
      ],
      [
        "le",
        "vel"
      ],
      [
        "sweetener",
        "s"
      ],
      [
        "hi",
        "dden"
      ],
      [
        "ex",
        "pl"
      ],
      [
        "ana",
        "tion"
      ],
      [
        ".\"}",
        "<|"
      ],
      [
        "confi",
        "dence"
      ],
      [
        "expl",
        "anation"
      ],
      [
        "lo",
        "ur"
      ],
      [
        "or",
        "n"
      ],
      [
        "tr",
        "ate"
      ],
      [
        "y",
        "ru"
      ],
      [
        "yru",
        "p"
      ],
      [
        "Ġso",
        "ur"
      ],
      [
        "Ġ",
        "C"
      ],
      [
        "Ġs",
        "yrup"
      ],
      [
        "Ġsour",
        "ce"
      ],
      [
        "Ġf",
        "lour"
      ],
      [
        "ate",
        "r"
      ],
      [
        "Ġ",
        "detected"
      ],
      [
        "Ġ",
        "B"
      ],
      [
        "\"",
        "],\""
      ],
      [
        "\":[",
        "\""
      ],
      [
        "i",
        "ce"
      ],
      [
        "Ġs",
        "alt"
      ],
      [
        "i",
        "c"
      ],
      [
        "Ġn",
        "atural"
      ],
      [
        "o",
        "se"
      ],
      [
        "Ġ",
        "v"
      ],
      [
        "Ġc",
        "orn"
      ],
      [
        "t",
        "h"
      ],
      [
        "l",
        "y"
      ],
      [
        "o",
        "c"
      ],
      [
        "u",
        "ice"
      ],
      [
        "Ġp",
        "o"
      ],
      [
        "Ġw",
        "ater"
      ],
      [
        "Ġso",
        "y"
      ],
      [
        "Ġ",
        "le"
      ],
      [
        "Ġ",
        "j"
      ],
      [
        "Ġj",
        "uice"
      ],
      [
        "r",
        "e"
      ],
      [
        "he",
        "at"
      ],
      [
        ")",
        ".\"}<|"
      ],
      [
        "e",
        "an"
      ],
      [
        "Ġ",
        "S"
      ],
      [
        "il",
        "k"
      ],
      [
        "r",
        "y"
      ],
      [
        "an",
        "e"
      ],
      [
        "Ġ",
        "con"
      ],
      [
        "t",
        "ar"
      ],
      [
        "s",
        "p"
      ],
      [
        "ce",
        "n"
      ],
      [
        "cen",
        "trate"
      ],
      [
        "al",
        "ci"
      ],
      [
        "Ġm",
        "on"
      ],
      [
        "Ġcon",
        "centrate"
      ],
      [
        "a",
        "k"
      ],
      [
        "r",
        "a"
      ],
      [
        "al",
        "m"
      ],
      [
        "Ġ",
        "ri"
      ],
      [
        "o",
        "z"
      ],
      [
        "l",
        "u"
      ],
      [
        "tr",
        "a"
      ],
      [
        "e",
        "g"
      ],
      [
        "H",
        "I"
      ],
      [
        "G",
        "H"
      ],
      [
        "HI",
        "GH"
      ],
      [
        "Ġn",
        "o"
      ],
      [
        "di",
        "um"
      ],
      [
        "ho",
        "le"
      ],
      [
        "ol",
        "ate"
      ],
      [
        "Ġs",
        "tar"
      ],
      [
        "Ġm",
        "ilk"
      ],
      [
        "te",
        "r"
      ],
      [
        "Ġstar",
        "ch"
      ],
      [
        "ho",
        "sp"
      ],
      [
        "b",
        "er"
      ],
      [
        "x",
        "tr"
      ],
      [
        "de",
        "xtr"
      ],
      [
        "Ġ",
        "ci"
      ],
      [
        "ri",
        "c"
      ],
      [
        "or",
        "b"
      ],
      [
        "Ġpo",
        "ta"
      ],
      [
        "alci",
        "um"
      ],
      [
        "si",
        "um"
      ],
      [
        "Ġg",
        "um"
      ],
      [
        "th",
        "in"
      ],
      [
        "ri",
        "de"
      ],
      [
        "a",
        "s"
      ],
      [
        "Ġw",
        "heat"
      ],
      [
        "ci",
        "thin"
      ],
      [
        "Ġle",
        "cithin"
      ],
      [
        "Ġ",
        "P"
      ],
      [
        "Ġ",
        "t"
      ],
      [
        "Ġ",
        "1"
      ],
      [
        "E",
        "R"
      ],
      [
        "h",
        "ate"
      ],
      [
        "hosp",
        "hate"
      ],
      [
        "s",
        "sium"
      ],
      [
        "Ġ",
        "F"
      ],
      [
        "in",
        "e"
      ],
      [
        "u",
        "s"
      ],
      [
        "ho",
        "c"
      ],
      [
        "hoc",
        "olate"
      ],
      [
        "Ġ",
        "M"
      ],
      [
        "oc",
        "o"
      ],
      [
        "Ġpota",
        "ssium"
      ],
      [
        "Ġp",
        "ro"
      ],
      [
        "ut",
        "ter"
      ],
      [
        "Ġp",
        "alm"
      ],
      [
        "p",
        "p"
      ],
      [
        "Ġ",
        "ex"
      ],
      [
        "Ġ",
        "red"
      ],
      [
        "v",
        "i"
      ],
      [
        "ber",
        "ry"
      ],
      [
        "o",
        "la"
      ],
      [
        "Ġc",
        "ar"
      ],
      [
        "ct",
        "ose"
      ],
      [
        "Ġf",
        "ru"
      ],
      [
        "Ġex",
        "tra"
      ],
      [
        "Ġsource",
        "s"
      ],
      [
        "Ġ",
        "h"
      ],
      [
        "lo",
        "w"
      ],
      [
        "Ġ",
        "in"
      ],
      [
        "Ġextra",
        "ct"
      ],
      [
        "Ġso",
        "dium"
      ],
      [
        "Ġw",
        "hole"
      ],
      [
        "ta",
        "m"
      ],
      [
        "Ġ",
        "d"
      ],
      [
        "Ġ",
        "i"
      ],
      [
        "w",
        "n"
      ],
      [
        "Ġf",
        "d"
      ],
      [
        "Ġo",
        "z"
      ],
      [
        "am",
        "in"
      ],
      [
        "t",
        "ric"
      ],
      [
        "a",
        "c"
      ],
      [
        "b",
        "ean"
      ],
      [
        "Ġci",
        "tric"
      ],
      [
        "g",
        "h"
      ],
      [
        "ro",
        "wn"
      ],
      [
        "Ġb",
        "utter"
      ],
      [
        "oco",
        "a"
      ],
      [
        "one",
        "y"
      ],
      [
        "Ġ",
        "su"
      ],
      [
        "g",
        "ly"
      ],
      [
        "c",
        "ane"
      ],
      [
        "Ġs",
        "e"
      ],
      [
        "b",
        "le"
      ],
      [
        "Ġri",
        "ce"
      ],
      [
        "Ġ",
        "di"
      ],
      [
        "u",
        "l"
      ],
      [
        "Ġc",
        "ocoa"
      ],
      [
        "Ġ",
        "D"
      ],
      [
        "i",
        "t"
      ],
      [
        "ate",
        "d"
      ],
      [
        "ce",
        "ride"
      ],
      [
        "gly",
        "ceride"
      ],
      [
        "e",
        "ta"
      ],
      [
        "Ġp",
        "hosphate"
      ],
      [
        "Ġ",
        "y"
      ],
      [
        "Ġ",
        "G"
      ],
      [
        "Ġc",
        "ane"
      ],
      [
        "te",
        "in"
      ],
      [
        "Ġn",
        "on"
      ],
      [
        "l",
        "i"
      ],
      [
        "v",
        "e"
      ],
      [
        "on",
        "i"
      ],
      [
        "Ġ",
        "O"
      ],
      [
        "d",
        "a"
      ],
      [
        "Ġsoy",
        "bean"
      ],
      [
        "an",
        "ola"
      ],
      [
        "o",
        "t"
      ],
      [
        "Ġg",
        "ra"
      ],
      [
        "ak",
        "ing"
      ],
      [
        "pp",
        "le"
      ],
      [
        "e",
        "s"
      ],
      [
        "eg",
        "g"
      ],
      [
        "i",
        "ac"
      ],
      [
        "Ġn",
        "iac"
      ],
      [
        "Ġniac",
        "in"
      ],
      [
        "o",
        "f"
      ],
      [
        "w",
        "de"
      ],
      [
        "an",
        "il"
      ],
      [
        "f",
        "at"
      ],
      [
        "ch",
        "ed"
      ],
      [
        "Ġfru",
        "ctose"
      ],
      [
        "Ġ",
        "egg"
      ],
      [
        "Ġm",
        "al"
      ],
      [
        "l",
        "f"
      ],
      [
        "Ġc",
        "alcium"
      ],
      [
        "m",
        "on"
      ],
      [
        "Ġc",
        "hocolate"
      ],
      [
        "anil",
        "la"
      ],
      [
        "Ġ",
        "la"
      ],
      [
        "s",
        "o"
      ],
      [
        "dextr",
        "ose"
      ],
      [
        "Ġ",
        "L"
      ],
      [
        "hi",
        "amin"
      ],
      [
        "Ġ",
        "W"
      ],
      [
        "ce",
        "d"
      ],
      [
        "Ġ",
        "6"
      ],
      [
        "Ġf",
        "l"
      ],
      [
        "Ġpo",
        "wde"
      ],
      [
        "Ġt",
        "hiamin"
      ],
      [
        "b",
        "of"
      ],
      [
        "lav",
        "in"
      ],
      [
        "Ġri",
        "bof"
      ],
      [
        "Ġribof",
        "lavin"
      ],
      [
        "t",
        "ur"
      ],
      [
        "Ġ",
        "en"
      ],
      [
        "A",
        "T"
      ],
      [
        "D",
        "ER"
      ],
      [
        "M",
        "O"
      ],
      [
        "Ġ",
        "artificial"
      ],
      [
        "AT",
        "E"
      ],
      [
        "DER",
        "ATE"
      ],
      [
        "MO",
        "DERATE"
      ],
      [
        ")",
        ";"
      ],
      [
        "fi",
        "ed"
      ],
      [
        "Ġso",
        "da"
      ],
      [
        "u",
        "n"
      ],
      [
        "Ġp",
        "e"
      ],
      [
        "Ġv",
        "i"
      ],
      [
        "Ġv",
        "eg"
      ],
      [
        "u",
        "ced"
      ],
      [
        "ul",
        "tur"
      ],
      [
        "r",
        "on"
      ],
      [
        "Ġf",
        "ol"
      ],
      [
        "eta",
        "ble"
      ],
      [
        "Ġfol",
        "ic"
      ],
      [
        "Ġmon",
        "o"
      ],
      [
        "dextr",
        "in"
      ],
      [
        "Ġi",
        "ron"
      ],
      [
        "z",
        "ed"
      ],
      [
        "tam",
        "in"
      ],
      [
        "Ġred",
        "uced"
      ],
      [
        "p",
        "i"
      ],
      [
        "re",
        "am"
      ],
      [
        "Ġpowde",
        "r"
      ],
      [
        "Ġb",
        "aking"
      ],
      [
        "Ġveg",
        "etable"
      ],
      [
        "Ġs",
        "orb"
      ],
      [
        "Ġmon",
        "oni"
      ],
      [
        "Ġmononi",
        "trate"
      ],
      [
        "Ġ",
        "or"
      ],
      [
        "Ġo",
        "at"
      ],
      [
        "hi",
        "gh"
      ],
      [
        "Ġvi",
        "tamin"
      ],
      [
        "m",
        "e"
      ],
      [
        "y",
        "d"
      ],
      [
        "Ġpro",
        "tein"
      ],
      [
        "Ġp",
        "y"
      ],
      [
        "Ġ",
        "4"
      ],
      [
        "o",
        "di"
      ],
      [
        "am",
        "e"
      ],
      [
        "Ġv",
        "anilla"
      ],
      [
        "Ġs",
        "weetener"
      ],
      [
        "Ġgra",
        "in"
      ],
      [
        "Ġc",
        "anola"
      ],
      [
        "V",
        "ER"
      ],
      [
        "VER",
        "Y"
      ],
      [
        "Ġ",
        "al"
      ],
      [
        "ti",
        "ve"
      ],
      [
        "l",
        "ue"
      ],
      [
        "Ġc",
        "h"
      ],
      [
        "yd",
        "ro"
      ],
      [
        "Ġc",
        "ultur"
      ],
      [
        "odi",
        "fied"
      ],
      [
        "Ġm",
        "odified"
      ],
      [
        "Ġ",
        "ing"
      ],
      [
        "Ġb",
        "rown"
      ],
      [
        "b",
        "on"
      ],
      [
        "o",
        "us"
      ],
      [
        "to",
        "dextrin"
      ],
      [
        "su",
        "lf"
      ],
      [
        "Ġa",
        "ce"
      ],
      [
        "le",
        "y"
      ],
      [
        "sulf",
        "ame"
      ],
      [
        "he",
        "y"
      ],
      [
        "o",
        "o"
      ],
      [
        "Ġh",
        "ydro"
      ],
      [
        "c",
        "lu"
      ],
      [
        "Ġ",
        "5"
      ],
      [
        "Ġ",
        "K"
      ],
      [
        "Ġin",
        "clu"
      ],
      [
        "g",
        "e"
      ],
      [
        "Ġno",
        "t"
      ],
      [
        "Ġ",
        "k"
      ],
      [
        "\\",
        "\""
      ],
      [
        "b",
        "vi"
      ],
      [
        "Ġ",
        "li"
      ],
      [
        "de",
        "s"
      ],
      [
        "Ġ\\",
        "\""
      ],
      [
        "Ġn",
        "am"
      ],
      [
        "Ġo",
        "bvi"
      ],
      [
        "ous",
        "ly"
      ],
      [
        "Ġinclu",
        "des"
      ],
      [
        "Ġnam",
        "ed"
      ],
      [
        "Ġobvi",
        "ously"
      ],
      [
        "ta",
        "te"
      ],
      [
        "Ġp",
        "ur"
      ],
      [
        "ean",
        "ut"
      ],
      [
        "hi",
        "te"
      ],
      [
        "ot",
        "t"
      ],
      [
        "Ġmono",
        "glyceride"
      ],
      [
        "Ġ",
        "ro"
      ],
      [
        "Ġ",
        "H"
      ],
      [
        "an",
        "th"
      ],
      [
        "Ġw",
        "hey"
      ],
      [
        "ri",
        "ched"
      ],
      [
        "F",
        "E"
      ],
      [
        "A",
        "FE"
      ],
      [
        "N",
        "o"
      ],
      [
        "S",
        "AFE"
      ],
      [
        "Ġcar",
        "bon"
      ],
      [
        "Ġ",
        "2"
      ],
      [
        "ĠB",
        "ar"
      ],
      [
        "o",
        "con"
      ],
      [
        "Ġen",
        "riched"
      ],
      [
        "ocon",
        "ut"
      ],
      [
        "c",
        "r"
      ],
      [
        "Ġh",
        "oney"
      ],
      [
        "f",
        "low"
      ],
      [
        "flow",
        "er"
      ],
      [
        "o",
        "x"
      ],
      [
        "Ġ",
        "x"
      ],
      [
        "ol",
        "or"
      ],
      [
        "so",
        "dium"
      ],
      [
        "s",
        "t"
      ],
      [
        "lo",
        "ride"
      ],
      [
        "oc",
        "a"
      ],
      [
        "\\\"",
        ".\"}<|"
      ],
      [
        "Ġ",
        "dextrose"
      ],
      [
        "a",
        "v"
      ],
      [
        "p",
        "k"
      ],
      [
        "w",
        "heat"
      ],
      [
        "anth",
        "an"
      ],
      [
        "Ġx",
        "anthan"
      ],
      [
        "Ġc",
        "ream"
      ],
      [
        "al",
        "ose"
      ],
      [
        "ta",
        "pi"
      ],
      [
        "Ġc",
        "olor"
      ],
      [
        "cr",
        "alose"
      ],
      [
        "tapi",
        "oca"
      ],
      [
        "Ġ",
        "T"
      ],
      [
        "Ġ",
        "Ċ"
      ],
      [
        "Ġb",
        "lue"
      ],
      [
        "tra",
        "w"
      ],
      [
        "as",
        "t"
      ],
      [
        "Ġse",
        "a"
      ],
      [
        "r",
        "ee"
      ],
      [
        "ott",
        "le"
      ],
      [
        "traw",
        "berry"
      ],
      [
        "a",
        "y"
      ],
      [
        "ĠC",
        "hocolate"
      ],
      [
        "Ġpur",
        "ee"
      ],
      [
        "n",
        "flower"
      ],
      [
        "Ġg",
        "lu"
      ],
      [
        "oc",
        "alcium"
      ],
      [
        "ĠB",
        "ottle"
      ],
      [
        "Ġle",
        "mon"
      ],
      [
        "Ġsu",
        "nflower"
      ],
      [
        "u",
        "ri"
      ],
      [
        "ar",
        "ley"
      ],
      [
        "'",
        "s"
      ],
      [
        "Ġsweetener",
        "s"
      ],
      [
        "c",
        "orb"
      ],
      [
        "Ġ",
        "R"
      ],
      [
        "el",
        "low"
      ],
      [
        "c",
        "er"
      ],
      [
        "er",
        "n"
      ],
      [
        "k",
        "e"
      ],
      [
        "Ġy",
        "ellow"
      ],
      [
        "Ġ",
        "Y"
      ],
      [
        "Ġa",
        "pple"
      ],
      [
        "ur",
        "t"
      ],
      [
        "as",
        "te"
      ],
      [
        "ru",
        "it"
      ],
      [
        "Ġk",
        "ern"
      ],
      [
        "Ġkern",
        "el"
      ],
      [
        "Ġ",
        "&"
      ],
      [
        "Ġg",
        "ly"
      ],
      [
        "c",
        "orn"
      ],
      [
        "p",
        "e"
      ],
      [
        "Ġb",
        "arley"
      ],
      [
        "ine",
        "gar"
      ],
      [
        "Ġci",
        "trate"
      ],
      [
        "ee",
        "se"
      ],
      [
        "Ġw",
        "hite"
      ],
      [
        "o",
        "g"
      ],
      [
        "Ġv",
        "inegar"
      ],
      [
        "re",
        "s"
      ],
      [
        "Ġmon",
        "ocalcium"
      ],
      [
        "Ġs",
        "p"
      ],
      [
        "og",
        "urt"
      ],
      [
        "n",
        "utri"
      ],
      [
        "r",
        "an"
      ],
      [
        "nutri",
        "tive"
      ],
      [
        "p",
        "hosphate"
      ],
      [
        "ri",
        "d"
      ],
      [
        "ch",
        "loride"
      ],
      [
        "Ġhydro",
        "chloride"
      ],
      [
        "le",
        "d"
      ],
      [
        "ĠB",
        "re"
      ],
      [
        "l",
        "lu"
      ],
      [
        "y",
        "l"
      ],
      [
        "Ġg",
        "u"
      ],
      [
        "corb",
        "ic"
      ],
      [
        "ri",
        "ed"
      ],
      [
        "Ġp",
        "eanut"
      ],
      [
        "Ġsorb",
        "ate"
      ],
      [
        "Ġ",
        "tapioca"
      ],
      [
        "le",
        "n"
      ],
      [
        "q",
        "u"
      ],
      [
        "Ġ",
        "V"
      ],
      [
        "Ġc",
        "oconut"
      ],
      [
        "Ġace",
        "sulfame"
      ],
      [
        "oo",
        "d"
      ],
      [
        "a",
        "p"
      ],
      [
        "Ġd",
        "ried"
      ],
      [
        "m",
        "al"
      ],
      [
        "ak",
        "e"
      ],
      [
        "h",
        "oney"
      ],
      [
        "uri",
        "zed"
      ],
      [
        "aste",
        "urized"
      ],
      [
        "er",
        "ol"
      ],
      [
        "Ġdi",
        "glyceride"
      ],
      [
        "f",
        "f"
      ],
      [
        "Ġ",
        "e"
      ],
      [
        "Ġ4",
        "0"
      ],
      [
        "Ġc",
        "hi"
      ],
      [
        "Ġb",
        "ean"
      ],
      [
        "i",
        "x"
      ],
      [
        "ol",
        "y"
      ],
      [
        "Ġas",
        "corbic"
      ],
      [
        "Ġch",
        "eese"
      ],
      [
        "Ġgu",
        "ar"
      ],
      [
        "f",
        "erol"
      ],
      [
        "alci",
        "ferol"
      ],
      [
        "Ġ",
        "E"
      ],
      [
        "to",
        "l"
      ],
      [
        "a",
        "d"
      ],
      [
        "Ġfru",
        "it"
      ],
      [
        "Ġpy",
        "rid"
      ],
      [
        "ox",
        "ine"
      ],
      [
        "Ġpyrid",
        "oxine"
      ],
      [
        "i",
        "d"
      ],
      [
        "on",
        "d"
      ],
      [
        "alm",
        "ond"
      ],
      [
        "l",
        "led"
      ],
      [
        "Ġcultur",
        "ed"
      ],
      [
        "c",
        "k"
      ],
      [
        "1",
        "2"
      ],
      [
        "b",
        "rown"
      ],
      [
        "ct",
        "in"
      ],
      [
        "Ġpe",
        "ctin"
      ],
      [
        "a",
        "b"
      ],
      [
        "de",
        "d"
      ],
      [
        "Ġ",
        "almond"
      ],
      [
        "Ġd",
        "ate"
      ],
      [
        "Ġgly",
        "cer"
      ],
      [
        "ar",
        "tam"
      ],
      [
        "en",
        "ing"
      ],
      [
        "Ġle",
        "av"
      ],
      [
        "Ġt",
        "he"
      ],
      [
        "artam",
        "e"
      ],
      [
        "Ġleav",
        "ening"
      ],
      [
        "â",
        "Ħ"
      ],
      [
        "ĠY",
        "ogurt"
      ],
      [
        "âĦ",
        "¢"
      ],
      [
        "s",
        "orb"
      ],
      [
        "Ġmal",
        "ted"
      ],
      [
        "ĠBar",
        "s"
      ],
      [
        "Ġglu",
        "ten"
      ],
      [
        "Ġ",
        "high"
      ],
      [
        "vi",
        "a"
      ],
      [
        "a",
        "pple"
      ],
      [
        "k",
        "i"
      ],
      [
        "te",
        "via"
      ],
      [
        "ro",
        "phosphate"
      ],
      [
        "ĠN",
        "atural"
      ],
      [
        "am",
        "el"
      ],
      [
        "Ġpy",
        "rophosphate"
      ],
      [
        "i",
        "tate"
      ],
      [
        "lo",
        "se"
      ],
      [
        "Ġpalm",
        "itate"
      ],
      [
        "Ġmal",
        "todextrin"
      ],
      [
        "f",
        "ruit"
      ],
      [
        "r",
        "el"
      ],
      [
        "Ġ",
        "ce"
      ],
      [
        "ĠL",
        "i"
      ],
      [
        "ar",
        "o"
      ],
      [
        "in",
        "n"
      ],
      [
        "Ġp",
        "oly"
      ],
      [
        "Ġpro",
        "vi"
      ],
      [
        "Ġing",
        "redient"
      ],
      [
        "Ġing",
        "redients"
      ],
      [
        "Ġli",
        "st"
      ],
      [
        "rel",
        "ated"
      ],
      [
        "Ġprovi",
        "ded"
      ],
      [
        "c",
        "alciferol"
      ],
      [
        "s",
        "olate"
      ],
      [
        "Ġc",
        "hole"
      ],
      [
        "am",
        "on"
      ],
      [
        "inn",
        "amon"
      ],
      [
        "Ġchole",
        "calciferol"
      ],
      [
        "k",
        "al"
      ],
      [
        "Ġ",
        "un"
      ],
      [
        "Ġi",
        "solate"
      ],
      [
        "Ġ",
        "Pro"
      ],
      [
        "ar",
        "ab"
      ],
      [
        "Ġc",
        "a"
      ],
      [
        "ar",
        "k"
      ],
      [
        "Ġse",
        "ed"
      ],
      [
        "Ġcarbon",
        "ated"
      ],
      [
        "a",
        "ched"
      ],
      [
        "ĠW",
        "ater"
      ],
      [
        "llu",
        "lose"
      ],
      [
        "c",
        "us"
      ],
      [
        "n",
        "t"
      ],
      [
        "b",
        "al"
      ],
      [
        "i",
        "s"
      ],
      [
        "i",
        "zed"
      ],
      [
        "w",
        "ater"
      ],
      [
        "y",
        "an"
      ],
      [
        "Ġ",
        "8"
      ],
      [
        "te",
        "red"
      ],
      [
        "su",
        "cralose"
      ],
      [
        "Ġc",
        "yan"
      ],
      [
        "Ġcyan",
        "oco"
      ],
      [
        "Ġa",
        "n"
      ],
      [
        "Ġal",
        "kal"
      ],
      [
        "Ġcyanoco",
        "bal"
      ],
      [
        "ĠM",
        "ix"
      ],
      [
        "Ġsp",
        "ice"
      ],
      [
        "Ġalkal",
        "ized"
      ],
      [
        ".",
        "."
      ],
      [
        "mal",
        "todextrin"
      ],
      [
        "c",
        "ur"
      ],
      [
        "Ġcyanocobal",
        "amin"
      ],
      [
        "Ġ1",
        "2"
      ],
      [
        "Ġcar",
        "amel"
      ],
      [
        "Ġcultur",
        "e"
      ],
      [
        "i",
        "ber"
      ],
      [
        "en",
        "z"
      ],
      [
        "a",
        "sp"
      ],
      [
        "er",
        "y"
      ],
      [
        "Ġ1",
        "6"
      ],
      [
        "Ġdi",
        "sodium"
      ],
      [
        "Ġce",
        "llulose"
      ],
      [
        "ĠPro",
        "tein"
      ],
      [
        "enz",
        "o"
      ],
      [
        "r",
        "ing"
      ],
      [
        "Ġb",
        "enzo"
      ],
      [
        "Ġglycer",
        "in"
      ],
      [
        "ti",
        "c"
      ],
      [
        "m",
        "ilk"
      ],
      [
        "Ġ",
        "3"
      ],
      [
        "e",
        "ast"
      ],
      [
        "o",
        "u"
      ],
      [
        "s",
        "se"
      ],
      [
        "Ġ",
        "10"
      ],
      [
        "ĠJ",
        "uice"
      ],
      [
        "ĠF",
        "ro"
      ],
      [
        "Ġla",
        "ctose"
      ],
      [
        "Ġbenzo",
        "ate"
      ],
      [
        "g",
        "in"
      ],
      [
        "Ġf",
        "iber"
      ],
      [
        "e",
        "al"
      ],
      [
        "ĠB",
        "utter"
      ],
      [
        "Ġ",
        "contains"
      ],
      [
        "an",
        "ana"
      ],
      [
        "lo",
        "cus"
      ],
      [
        "Ġy",
        "east"
      ],
      [
        "locus",
        "t"
      ],
      [
        "l",
        "ic"
      ],
      [
        "Ġ",
        "locust"
      ],
      [
        "Ġs",
        "trawberry"
      ],
      [
        "weeten",
        "ed"
      ],
      [
        "Ġo",
        "c"
      ],
      [
        "Ġsu",
        "lf"
      ],
      [
        "Ġsulf",
        "ate"
      ],
      [
        "er",
        "ry"
      ],
      [
        "len",
        "d"
      ],
      [
        "Ġp",
        "re"
      ],
      [
        "y",
        "me"
      ],
      [
        "Ġ",
        "ra"
      ],
      [
        "Ġf",
        "ood"
      ],
      [
        "Ġm",
        "ay"
      ],
      [
        "Ġb",
        "e"
      ],
      [
        "ola",
        "sse"
      ],
      [
        "cur",
        "ring"
      ],
      [
        "Ġoc",
        "curring"
      ],
      [
        "Ġf",
        "la"
      ],
      [
        "Ġgra",
        "pe"
      ],
      [
        "Ġla",
        "c"
      ],
      [
        "sorb",
        "ate"
      ],
      [
        "Ġpoly",
        "sorbate"
      ],
      [
        "t",
        "y"
      ],
      [
        "v",
        "er"
      ],
      [
        "se",
        "nt"
      ],
      [
        "Ġsugar",
        "s"
      ],
      [
        "Ġf",
        "il"
      ],
      [
        "Ġm",
        "olasse"
      ],
      [
        "ĠS",
        "p"
      ],
      [
        "ĠP",
        "an"
      ],
      [
        "ĠNatural",
        "ly"
      ],
      [
        "Ġpre",
        "sent"
      ],
      [
        "Ġ",
        "gar"
      ],
      [
        "Ġf",
        "at"
      ],
      [
        "in",
        "k"
      ],
      [
        "Ġ6",
        "0"
      ],
      [
        "Ġgar",
        "lic"
      ],
      [
        "i",
        "de"
      ],
      [
        "Ġp",
        "asteurized"
      ],
      [
        "wee",
        "t"
      ],
      [
        "Ġcarbon",
        "ate"
      ],
      [
        "3",
        "3"
      ],
      [
        "b",
        "a"
      ],
      [
        "m",
        "i"
      ],
      [
        "z",
        "yme"
      ],
      [
        "Ġm",
        "alt"
      ],
      [
        "ĠS",
        "trawberry"
      ],
      [
        "Ġpota",
        "to"
      ],
      [
        "Ġen",
        "zyme"
      ],
      [
        "Ġb",
        "lend"
      ],
      [
        "f",
        "ast"
      ],
      [
        "Ġ",
        "oni"
      ],
      [
        "ak",
        "fast"
      ],
      [
        "Ġoni",
        "on"
      ],
      [
        "z",
        "en"
      ],
      [
        "Ġc",
        "innamon"
      ],
      [
        "ĠO",
        "at"
      ],
      [
        "ĠBre",
        "akfast"
      ],
      [
        "se",
        "ed"
      ],
      [
        "arab",
        "ic"
      ],
      [
        "a",
        "ce"
      ],
      [
        "r",
        "ink"
      ],
      [
        "ĠFro",
        "zen"
      ],
      [
        "ace",
        "sulfame"
      ],
      [
        "s",
        "weetened"
      ],
      [
        "Ġ",
        "arabic"
      ],
      [
        "Ġsu",
        "cralose"
      ],
      [
        "ĠC",
        "an"
      ],
      [
        "Ġfil",
        "tered"
      ],
      [
        "i",
        "e"
      ],
      [
        "r",
        "anola"
      ],
      [
        "ĠM",
        "ar"
      ],
      [
        "so",
        "y"
      ],
      [
        "asp",
        "artame"
      ],
      [
        "s",
        "tevia"
      ],
      [
        "ĠBre",
        "ad"
      ],
      [
        "ĠP",
        "e"
      ],
      [
        "Ġace",
        "tate"
      ],
      [
        "a",
        "g"
      ],
      [
        "a",
        "ch"
      ],
      [
        "c",
        "aro"
      ],
      [
        "l",
        "ing"
      ],
      [
        "n",
        "at"
      ],
      [
        "p",
        "o"
      ],
      [
        "Ġsorb",
        "ic"
      ],
      [
        "ki",
        "m"
      ],
      [
        "nat",
        "to"
      ],
      [
        "g",
        "en"
      ],
      [
        "he",
        "w"
      ],
      [
        "Ġblue",
        "berry"
      ],
      [
        "pp",
        "er"
      ],
      [
        "g",
        "g"
      ],
      [
        "hi",
        "p"
      ],
      [
        "p",
        "h"
      ],
      [
        "Ġf",
        "ro"
      ],
      [
        "ĠC",
        "h"
      ],
      [
        "s",
        "ti"
      ],
      [
        "pi",
        "on"
      ],
      [
        "caro",
        "ten"
      ],
      [
        "in",
        "ate"
      ],
      [
        "ĠS",
        "u"
      ],
      [
        "Ġpro",
        "pion"
      ],
      [
        "ĠO",
        "r"
      ],
      [
        "Ġan",
        "natto"
      ],
      [
        "caroten",
        "e"
      ],
      [
        "Ġpropion",
        "ate"
      ],
      [
        "a",
        "i"
      ],
      [
        "c",
        "or"
      ],
      [
        "m",
        "o"
      ],
      [
        "n",
        "e"
      ],
      [
        "Ġb",
        "eta"
      ],
      [
        "C",
        "on"
      ],
      [
        "g",
        "an"
      ],
      [
        "Ġin",
        "ver"
      ],
      [
        "ĠG",
        "ra"
      ],
      [
        "Ġla",
        "ct"
      ],
      [
        "ree",
        "k"
      ],
      [
        "Ġlac",
        "tic"
      ],
      [
        "ĠCan",
        "s"
      ],
      [
        "ĠOr",
        "gan"
      ],
      [
        "Con",
        "tains"
      ],
      [
        "ĠOrgan",
        "ic"
      ],
      [
        "b",
        "aking"
      ],
      [
        "e",
        "mon"
      ],
      [
        "ic",
        "ing"
      ],
      [
        "Ġd",
        "ry"
      ],
      [
        "ĠD",
        "rink"
      ],
      [
        "Ġro",
        "lled"
      ],
      [
        "tr",
        "y"
      ],
      [
        "ĠA",
        "l"
      ],
      [
        "es",
        "ter"
      ],
      [
        "ĠL",
        "emon"
      ],
      [
        "Ġca",
        "se"
      ],
      [
        "p",
        "alm"
      ],
      [
        "Ġ",
        "low"
      ],
      [
        "ho",
        "ric"
      ],
      [
        "hosp",
        "horic"
      ],
      [
        "Ġmal",
        "ic"
      ],
      [
        "Ġlow",
        "fat"
      ],
      [
        "m",
        "ar"
      ],
      [
        "tar",
        "d"
      ],
      [
        "us",
        "tard"
      ],
      [
        "ke",
        "t"
      ],
      [
        "1",
        "6"
      ],
      [
        "c",
        "ro"
      ],
      [
        "o",
        "w"
      ],
      [
        "ar",
        "m"
      ],
      [
        "er",
        "eal"
      ],
      [
        "Ġp",
        "hosphoric"
      ],
      [
        "ro",
        "t"
      ],
      [
        "Ġso",
        "li"
      ],
      [
        "ĠF",
        "ree"
      ],
      [
        "ran",
        "berry"
      ],
      [
        "ery",
        "th"
      ],
      [
        "cro",
        "se"
      ],
      [
        "Ġsoli",
        "d"
      ],
      [
        "a",
        "ff"
      ],
      [
        "e",
        "ine"
      ],
      [
        "i",
        "th"
      ],
      [
        "ri",
        "gin"
      ],
      [
        "ĠC",
        "ake"
      ],
      [
        "Ġbutter",
        "milk"
      ],
      [
        "ĠO",
        "rigin"
      ],
      [
        "ĠE",
        "n"
      ],
      [
        "ĠOrigin",
        "al"
      ],
      [
        "2",
        "5"
      ],
      [
        "a",
        "tive"
      ],
      [
        "ĠK",
        "id"
      ],
      [
        "Ġli",
        "qu"
      ],
      [
        "Ġb",
        "le"
      ],
      [
        "ĠC",
        "ereal"
      ],
      [
        "ĠS",
        "o"
      ],
      [
        "ĠG",
        "reek"
      ],
      [
        "Ġ2",
        "0"
      ],
      [
        "ĠV",
        "anilla"
      ],
      [
        "gen",
        "ated"
      ],
      [
        "1",
        "1"
      ],
      [
        "c",
        "ake"
      ],
      [
        "p",
        "asteurized"
      ],
      [
        "Ġb",
        "anana"
      ],
      [
        "ĠC",
        "hip"
      ],
      [
        "as",
        "hew"
      ],
      [
        "ble",
        "ached"
      ],
      [
        "Ġdi",
        "sti"
      ],
      [
        "ĠG",
        "ranola"
      ],
      [
        "Ġchi",
        "p"
      ],
      [
        "Ġfla",
        "x"
      ],
      [
        "ĠPan",
        "try"
      ],
      [
        "ĠMar",
        "ket"
      ],
      [
        "o",
        "s"
      ],
      [
        "o",
        "ri"
      ],
      [
        "gh",
        "t"
      ],
      [
        "Ġpe",
        "pper"
      ],
      [
        "Ġfro",
        "m"
      ],
      [
        "cor",
        "y"
      ],
      [
        "ĠKid",
        "s"
      ],
      [
        "Ġble",
        "ached"
      ],
      [
        "i",
        "tol"
      ],
      [
        "u",
        "p"
      ],
      [
        "x",
        "ide"
      ],
      [
        "Ġs",
        "kim"
      ],
      [
        "res",
        "s"
      ],
      [
        "Ġchi",
        "cory"
      ],
      [
        "ĠSu",
        "gar"
      ],
      [
        "Ġ",
        ".."
      ],
      [
        "an",
        "g"
      ],
      [
        "um",
        "in"
      ],
      [
        "ĠT",
        "o"
      ],
      [
        "Ġdate",
        "m"
      ],
      [
        "Ġun",
        "sweetened"
      ],
      [
        "is",
        "in"
      ],
      [
        "soy",
        "bean"
      ],
      [
        "Ġinver",
        "ted"
      ],
      [
        "Ġ..",
        "."
      ],
      [
        "Ġ",
        "de"
      ],
      [
        "an",
        "ge"
      ],
      [
        "Ġw",
        "ith"
      ],
      [
        "ol",
        "k"
      ],
      [
        "Ġla",
        "ke"
      ],
      [
        "Ġor",
        "ange"
      ],
      [
        "ap",
        "le"
      ],
      [
        "ag",
        "ne"
      ],
      [
        "Ġliqu",
        "or"
      ],
      [
        "Ġf",
        "er"
      ],
      [
        "le",
        "s"
      ],
      [
        "Ġp",
        "ap"
      ],
      [
        "Ġg",
        "el"
      ],
      [
        "ĠP",
        "eanut"
      ],
      [
        "ĠF",
        "ruit"
      ],
      [
        "Ġy",
        "olk"
      ],
      [
        "es",
        "s"
      ],
      [
        "ĠW",
        "aff"
      ],
      [
        "Ġal",
        "umin"
      ],
      [
        "Ġro",
        "ot"
      ],
      [
        "res",
        "erv"
      ],
      [
        "yl",
        "ate"
      ],
      [
        "ff",
        "eine"
      ],
      [
        "Ġca",
        "ffeine"
      ],
      [
        "ress",
        "ing"
      ],
      [
        "c",
        "o"
      ],
      [
        "c",
        "ose"
      ],
      [
        "s",
        "weet"
      ],
      [
        "Ġp",
        "reserv"
      ],
      [
        "ry",
        "e"
      ],
      [
        "Ġhydro",
        "genated"
      ],
      [
        "ark",
        "ling"
      ],
      [
        "Ġcase",
        "inate"
      ],
      [
        "Ġdisti",
        "lled"
      ],
      [
        "Ġflax",
        "seed"
      ],
      [
        "agne",
        "sium"
      ],
      [
        "Ġpreserv",
        "ative"
      ],
      [
        "c",
        "ol"
      ],
      [
        "f",
        "lour"
      ],
      [
        "p",
        "artame"
      ],
      [
        "Ġ",
        "rye"
      ],
      [
        "en",
        "an"
      ],
      [
        "ris",
        "p"
      ],
      [
        "Ġas",
        "partame"
      ],
      [
        "ra",
        "ge"
      ],
      [
        "Ġcar",
        "rot"
      ],
      [
        "Ġcar",
        "rage"
      ],
      [
        "ĠD",
        "ressing"
      ],
      [
        "Ġalumin",
        "um"
      ],
      [
        "Ġcarrage",
        "enan"
      ],
      [
        "Ġb",
        "ran"
      ],
      [
        "ĠB",
        "lue"
      ],
      [
        "a",
        "de"
      ],
      [
        "Ġs",
        "h"
      ],
      [
        "Ġo",
        "xide"
      ],
      [
        "Ġs",
        "tevia"
      ],
      [
        "ri",
        "tol"
      ],
      [
        "Ġc",
        "ashew"
      ],
      [
        "Ġ2",
        "4"
      ],
      [
        "Ġfat",
        "ty"
      ],
      [
        "Ġ",
        "eryth"
      ],
      [
        "Ġs",
        "te"
      ],
      [
        "Ġc",
        "ranberry"
      ],
      [
        "Ġm",
        "agnesium"
      ],
      [
        "ĠC",
        "up"
      ],
      [
        "sp",
        "berry"
      ],
      [
        "lu",
        "ten"
      ],
      [
        "as",
        "ted"
      ],
      [
        "Ġse",
        "mi"
      ],
      [
        "ĠD",
        "ay"
      ],
      [
        "oo",
        "ki"
      ],
      [
        "Ġro",
        "se"
      ],
      [
        "res",
        "h"
      ],
      [
        "ĠLi",
        "ght"
      ],
      [
        "Ġun",
        "bleached"
      ],
      [
        "k",
        "a"
      ],
      [
        "Ġf",
        "resh"
      ],
      [
        "Ġm",
        "ustard"
      ],
      [
        "atur",
        "e"
      ],
      [
        "ĠN",
        "ature"
      ],
      [
        "ĠA",
        "pple"
      ],
      [
        "ĠF",
        "av"
      ],
      [
        "ĠF",
        "arm"
      ],
      [
        "ĠG",
        "luten"
      ],
      [
        "ĠW",
        "hole"
      ],
      [
        "ori",
        "te"
      ],
      [
        "ĠFav",
        "orite"
      ],
      [
        "c",
        "ream"
      ],
      [
        "ri",
        "ka"
      ],
      [
        "er",
        "g"
      ],
      [
        "ci",
        "llu"
      ],
      [
        "Ġc",
        "risp"
      ],
      [
        "ĠP",
        "ou"
      ],
      [
        "ĠH",
        "oney"
      ],
      [
        "Ġpap",
        "rika"
      ],
      [
        "cillu",
        "s"
      ],
      [
        "7",
        "5"
      ],
      [
        "a",
        "ve"
      ],
      [
        "c",
        "alcium"
      ],
      [
        "n",
        "ess"
      ],
      [
        "y",
        "len"
      ],
      [
        "Ġ",
        "z"
      ],
      [
        "Ġ",
        "100"
      ],
      [
        "ak",
        "es"
      ],
      [
        "Ġt",
        "ur"
      ],
      [
        "ultur",
        "ed"
      ],
      [
        "me",
        "ric"
      ],
      [
        "Ġgly",
        "col"
      ],
      [
        "ba",
        "cillus"
      ],
      [
        "ang",
        "o"
      ],
      [
        "ylen",
        "e"
      ],
      [
        "h",
        "er"
      ],
      [
        "p",
        "ylene"
      ],
      [
        "er",
        "al"
      ],
      [
        "un",
        "d"
      ],
      [
        "Ġra",
        "isin"
      ],
      [
        "ĠBlue",
        "berry"
      ],
      [
        "a",
        "u"
      ],
      [
        "c",
        "ultured"
      ],
      [
        "Ġm",
        "il"
      ],
      [
        "li",
        "ve"
      ],
      [
        "ĠSp",
        "arkling"
      ],
      [
        "f",
        "l"
      ],
      [
        "Ġ",
        "ed"
      ],
      [
        "in",
        "eral"
      ],
      [
        "ru",
        "ctose"
      ],
      [
        "ĠB",
        "i"
      ],
      [
        "Ġ1",
        "5"
      ],
      [
        "Ġpe",
        "a"
      ],
      [
        "Ġra",
        "spberry"
      ],
      [
        "1",
        "4"
      ],
      [
        "Ġ",
        "ester"
      ],
      [
        "su",
        "crose"
      ],
      [
        "in",
        "c"
      ],
      [
        "or",
        "ten"
      ],
      [
        "la",
        "ck"
      ],
      [
        "ĠC",
        "ooki"
      ],
      [
        "Ġsh",
        "orten"
      ],
      [
        "ĠPou",
        "ch"
      ],
      [
        "Ġz",
        "inc"
      ],
      [
        "Ġed",
        "ta"
      ],
      [
        "Ġshorten",
        "ing"
      ],
      [
        "s",
        "tal"
      ],
      [
        "ĠS",
        "al"
      ],
      [
        "ry",
        "stal"
      ],
      [
        "ĠM",
        "ilk"
      ],
      [
        "mon",
        "d"
      ],
      [
        "uri",
        "fied"
      ],
      [
        "aro",
        "yl"
      ],
      [
        "po",
        "ta"
      ],
      [
        "Ġlact",
        "ylate"
      ],
      [
        "ĠAl",
        "mond"
      ],
      [
        "mar",
        "y"
      ],
      [
        "Ġ...",
        ");"
      ],
      [
        "Ġste",
        "aroyl"
      ],
      [
        "Ġrose",
        "mary"
      ],
      [
        "Ġfresh",
        "ness"
      ],
      [
        "Ġtur",
        "meric"
      ],
      [
        "6",
        "6"
      ],
      [
        "i",
        "ta"
      ],
      [
        "Ġf",
        "or"
      ],
      [
        "ĠC",
        "ar"
      ],
      [
        "ĠC",
        "ream"
      ],
      [
        "ĠB",
        "erry"
      ],
      [
        "me",
        "al"
      ],
      [
        "ĠSo",
        "da"
      ],
      [
        "ĠWaff",
        "les"
      ],
      [
        "s",
        "s"
      ],
      [
        "Ġ",
        "7"
      ],
      [
        "le",
        "t"
      ],
      [
        "el",
        "lo"
      ],
      [
        "ĠC",
        "innamon"
      ],
      [
        "ĠB",
        "anana"
      ],
      [
        "ac",
        "k"
      ],
      [
        "ĠD",
        "ark"
      ],
      [
        "Ġy",
        "ogurt"
      ],
      [
        "Ġch",
        "loride"
      ],
      [
        "m",
        "at"
      ],
      [
        "an",
        "to"
      ],
      [
        "Ġp",
        "urified"
      ],
      [
        "Ġp",
        "anto"
      ],
      [
        "ee",
        "t"
      ],
      [
        "ro",
        "und"
      ],
      [
        "Ġm",
        "ineral"
      ],
      [
        "Ġb",
        "u"
      ],
      [
        "th",
        "en"
      ],
      [
        "ĠP",
        "ie"
      ],
      [
        "Ġ6",
        "4"
      ],
      [
        "ĠH",
        "i"
      ],
      [
        "ĠV",
        "al"
      ],
      [
        "ĠOat",
        "meal"
      ],
      [
        "mat",
        "o"
      ],
      [
        "Ġpanto",
        "then"
      ],
      [
        "m",
        "alt"
      ],
      [
        "Ġo",
        "live"
      ],
      [
        "ĠP",
        "o"
      ],
      [
        "Ġpe",
        "ar"
      ],
      [
        "ĠK",
        "ello"
      ],
      [
        "ĠE",
        "gg"
      ],
      [
        "ou",
        "gh"
      ],
      [
        "Ġfla",
        "ke"
      ],
      [
        "ĠVal",
        "ley"
      ],
      [
        "Ġpantothen",
        "ate"
      ],
      [
        "5",
        "7"
      ],
      [
        "f",
        "e"
      ],
      [
        "o",
        "bacillus"
      ],
      [
        "an",
        "i"
      ],
      [
        "ĠN",
        "ut"
      ],
      [
        "Ġg",
        "round"
      ],
      [
        "ĠM",
        "in"
      ],
      [
        "sorb",
        "itol"
      ],
      [
        "ĠLemon",
        "ade"
      ],
      [
        "ĠKello",
        "gg"
      ],
      [
        "2",
        "2"
      ],
      [
        "2",
        "8"
      ],
      [
        "f",
        "ructose"
      ],
      [
        "l",
        "in"
      ],
      [
        "l",
        "tered"
      ],
      [
        "t",
        "ho"
      ],
      [
        "Ġ",
        "Q"
      ],
      [
        "Ġ",
        "tar"
      ],
      [
        "fi",
        "ltered"
      ],
      [
        "at",
        "in"
      ],
      [
        "el",
        "l"
      ],
      [
        "ĠS",
        "e"
      ],
      [
        "Ġt",
        "ri"
      ],
      [
        "Ġpowde",
        "red"
      ],
      [
        "Ġli",
        "me"
      ],
      [
        "Ġro",
        "asted"
      ],
      [
        "ĠBottle",
        "s"
      ],
      [
        "ĠOat",
        "s"
      ],
      [
        "ĠCh",
        "erry"
      ],
      [
        "Ġfer",
        "ric"
      ],
      [
        "Ġgel",
        "atin"
      ],
      [
        "ĠSal",
        "ad"
      ],
      [
        "a",
        "ge"
      ],
      [
        "h",
        "an"
      ],
      [
        "n",
        "on"
      ],
      [
        "w",
        "hole"
      ],
      [
        "in",
        "o"
      ],
      [
        "in",
        "ach"
      ],
      [
        "ti",
        "tol"
      ],
      [
        "ĠS",
        "mo"
      ],
      [
        "ak",
        "ed"
      ],
      [
        "Ġ1",
        "1"
      ],
      [
        "Ġpro",
        "pylene"
      ],
      [
        "wde",
        "red"
      ],
      [
        "ĠL",
        "arab"
      ],
      [
        "ty",
        "le"
      ],
      [
        "33",
        "3"
      ],
      [
        "Ġeryth",
        "ritol"
      ],
      [
        "Ġmil",
        "let"
      ],
      [
        "66",
        "7"
      ],
      [
        "ĠLarab",
        "ar"
      ],
      [
        "6",
        "2"
      ],
      [
        "w",
        "i"
      ],
      [
        "Ġ",
        "dextrin"
      ],
      [
        "Ġb",
        "eet"
      ],
      [
        "ĠC",
        "oconut"
      ],
      [
        "ĠF",
        "lavor"
      ],
      [
        "ĠO",
        "ran"
      ],
      [
        "ot",
        "hi"
      ],
      [
        "ĠL",
        "ow"
      ],
      [
        "Ġglu",
        "cose"
      ],
      [
        "ĠR",
        "ed"
      ],
      [
        "po",
        "wdered"
      ],
      [
        "ĠEn",
        "han"
      ],
      [
        "ĠPouch",
        "es"
      ],
      [
        "Ġtar",
        "tar"
      ],
      [
        "ĠSmo",
        "othi"
      ],
      [
        "ĠOran",
        "ge"
      ],
      [
        "2",
        "0"
      ],
      [
        "f",
        "t"
      ],
      [
        "i",
        "m"
      ],
      [
        "r",
        "en"
      ],
      [
        "Ġp",
        "aste"
      ],
      [
        "um",
        "pk"
      ],
      [
        "ho",
        "l"
      ],
      [
        "es",
        "t"
      ],
      [
        "ox",
        "ide"
      ],
      [
        "qu",
        "id"
      ],
      [
        "ĠLi",
        "quid"
      ],
      [
        "umpk",
        "in"
      ],
      [
        "f",
        "ree"
      ],
      [
        "n",
        "ut"
      ],
      [
        "y",
        "r"
      ],
      [
        "ri",
        "ce"
      ],
      [
        "Ġm",
        "ar"
      ],
      [
        "ĠG",
        "ood"
      ],
      [
        "ĠW",
        "heat"
      ],
      [
        "ĠW",
        "hite"
      ],
      [
        "ĠQ",
        "u"
      ],
      [
        "ĠSmoothi",
        "e"
      ],
      [
        "c",
        "tive"
      ],
      [
        "c",
        "akes"
      ],
      [
        "e",
        "w"
      ],
      [
        "g",
        "ave"
      ],
      [
        "l",
        "an"
      ],
      [
        "Ġ",
        "Z"
      ],
      [
        "er",
        "s"
      ],
      [
        "Ġto",
        "mato"
      ],
      [
        "ĠB",
        "e"
      ],
      [
        "ĠB",
        "rown"
      ],
      [
        "re",
        "en"
      ],
      [
        "ra",
        "ft"
      ],
      [
        "ĠG",
        "o"
      ],
      [
        "ĠK",
        "raft"
      ],
      [
        "\\\"",
        ";"
      ],
      [
        "ott",
        "on"
      ],
      [
        "ĠY",
        "o"
      ],
      [
        "1",
        "8"
      ],
      [
        "2",
        "7"
      ],
      [
        "g",
        "ra"
      ],
      [
        "s",
        "ame"
      ],
      [
        "w",
        "hite"
      ],
      [
        "Ġc",
        "o"
      ],
      [
        "il",
        "us"
      ],
      [
        "ĠC",
        "ru"
      ],
      [
        "ak",
        "er"
      ],
      [
        "Ġmilk",
        "fat"
      ],
      [
        "Ġ1",
        "8"
      ],
      [
        "pp",
        "ing"
      ],
      [
        "Ġd",
        "ark"
      ],
      [
        "Ġse",
        "same"
      ],
      [
        "ĠH",
        "e"
      ],
      [
        "ck",
        "wheat"
      ],
      [
        "ĠLi",
        "me"
      ],
      [
        "asp",
        "berry"
      ],
      [
        "ph",
        "ilus"
      ],
      [
        "ĠCh",
        "eese"
      ],
      [
        "pota",
        "ssium"
      ],
      [
        "Ġbu",
        "ckwheat"
      ],
      [
        "1",
        "7"
      ],
      [
        "4",
        "4"
      ],
      [
        "b",
        "i"
      ],
      [
        "Ġa",
        "ctive"
      ],
      [
        "Ġc",
        "otton"
      ],
      [
        "il",
        "l"
      ],
      [
        "tion",
        "er"
      ],
      [
        "Ġb",
        "h"
      ],
      [
        "Ġb",
        "i"
      ],
      [
        "ĠS",
        "alt"
      ],
      [
        "Ġdi",
        "oxide"
      ],
      [
        "ĠG",
        "at"
      ],
      [
        "Ġ3",
        "2"
      ],
      [
        "ĠGra",
        "pe"
      ],
      [
        "Ġcotton",
        "seed"
      ],
      [
        "8",
        "3"
      ],
      [
        "a",
        "x"
      ],
      [
        "a",
        "con"
      ],
      [
        "b",
        "ani"
      ],
      [
        "e",
        "rid"
      ],
      [
        "n",
        "au"
      ],
      [
        "o",
        "un"
      ],
      [
        "Ġ",
        "re"
      ],
      [
        "Ġ",
        "icing"
      ],
      [
        "al",
        "e"
      ],
      [
        "te",
        "s"
      ],
      [
        "Ġp",
        "umpkin"
      ],
      [
        "Ġw",
        "ax"
      ],
      [
        "el",
        "t"
      ],
      [
        "ho",
        "bani"
      ],
      [
        "ĠC",
        "hobani"
      ],
      [
        "ĠS",
        "qu"
      ],
      [
        "ĠS",
        "tyle"
      ],
      [
        "ĠF",
        "at"
      ],
      [
        "pp",
        "erid"
      ],
      [
        "Ġcar",
        "nau"
      ],
      [
        "ĠR",
        "aspberry"
      ],
      [
        "Ġlac",
        "tate"
      ],
      [
        "ĠPe",
        "pperid"
      ],
      [
        "ĠGra",
        "in"
      ],
      [
        "Ġlact",
        "obacillus"
      ],
      [
        "erg",
        "y"
      ],
      [
        "ĠQu",
        "aker"
      ],
      [
        "Ġcarnau",
        "ba"
      ],
      [
        "ĠPepperid",
        "ge"
      ],
      [
        "1",
        "5"
      ],
      [
        "3",
        "2"
      ],
      [
        "3",
        "5"
      ],
      [
        "Ġ",
        "qu"
      ],
      [
        "ar",
        "t"
      ],
      [
        "ar",
        "ate"
      ],
      [
        "gar",
        "ine"
      ],
      [
        "Ġa",
        "gave"
      ],
      [
        "se",
        "d"
      ],
      [
        "or",
        "k"
      ],
      [
        "Ġb",
        "lack"
      ],
      [
        "ĠS",
        "un"
      ],
      [
        "ĠF",
        "ood"
      ],
      [
        "ĠF",
        "ren"
      ],
      [
        "ĠM",
        "i"
      ],
      [
        "ĠD",
        "an"
      ],
      [
        "un",
        "ch"
      ],
      [
        "Ġal",
        "gin"
      ],
      [
        "Ġal",
        "co"
      ],
      [
        "Ġpur",
        "e"
      ],
      [
        "ap",
        "or"
      ],
      [
        "Ġan",
        "d"
      ],
      [
        "ĠEn",
        "ergy"
      ],
      [
        "ĠTo",
        "pping"
      ],
      [
        "co",
        "ph"
      ],
      [
        "ĠBi",
        "tes"
      ],
      [
        "Ġmar",
        "garine"
      ],
      [
        "ĠFren",
        "ch"
      ],
      [
        "Ġalgin",
        "ate"
      ],
      [
        "Ġalco",
        "hol"
      ],
      [
        "2",
        "6"
      ],
      [
        "c",
        "oconut"
      ],
      [
        "m",
        "in"
      ],
      [
        "m",
        "an"
      ],
      [
        "s",
        "te"
      ],
      [
        "Ġ",
        "te"
      ],
      [
        "on",
        "n"
      ],
      [
        "ta",
        "nt"
      ],
      [
        "er",
        "o"
      ],
      [
        "Ġm",
        "aple"
      ],
      [
        "ĠN",
        "aked"
      ],
      [
        "ĠC",
        "rystal"
      ],
      [
        "th",
        "er"
      ],
      [
        "ric",
        "alcium"
      ],
      [
        "Ġt",
        "ricalcium"
      ],
      [
        "ine",
        "apple"
      ],
      [
        "ĠM",
        "ango"
      ],
      [
        "Ġsu",
        "crose"
      ],
      [
        "mon",
        "ocalcium"
      ],
      [
        "un",
        "sweetened"
      ],
      [
        "Ġsorb",
        "itol"
      ],
      [
        "ĠK",
        "I"
      ],
      [
        "ĠK",
        "e"
      ],
      [
        "st",
        "ing"
      ],
      [
        "ĠT",
        "he"
      ],
      [
        "ĠMin",
        "i"
      ],
      [
        "ĠEnhan",
        "cer"
      ],
      [
        "ĠGat",
        "her"
      ],
      [
        "4",
        "2"
      ],
      [
        "g",
        "lu"
      ],
      [
        "i",
        "an"
      ],
      [
        "n",
        "ch"
      ],
      [
        "o",
        "m"
      ],
      [
        "p",
        "le"
      ],
      [
        "p",
        "la"
      ],
      [
        "v",
        "apor"
      ],
      [
        "de",
        "r"
      ],
      [
        "Ġa",
        "mar"
      ],
      [
        "ten",
        "d"
      ],
      [
        "la",
        "s"
      ],
      [
        "ĠI",
        "ce"
      ],
      [
        "ic",
        "k"
      ],
      [
        "ĠP",
        "ur"
      ],
      [
        "ĠP",
        "unch"
      ],
      [
        "Ġex",
        "tend"
      ],
      [
        "fat",
        "ted"
      ],
      [
        "Ġor",
        "tho"
      ],
      [
        "Ġsp",
        "inach"
      ],
      [
        "ai",
        "ry"
      ],
      [
        "Ġde",
        "fatted"
      ],
      [
        "ĠEgg",
        "o"
      ],
      [
        "ino",
        "a"
      ],
      [
        "Ġbh",
        "t"
      ],
      [
        "Ġqu",
        "inoa"
      ],
      [
        "glu",
        "cose"
      ],
      [
        "vapor",
        "ated"
      ],
      [
        "Ġamar",
        "anth"
      ],
      [
        "Ġortho",
        "phosphate"
      ],
      [
        ")",
        "),"
      ],
      [
        "1",
        "9"
      ],
      [
        "N",
        "D"
      ],
      [
        "b",
        "ut"
      ],
      [
        "c",
        "anola"
      ],
      [
        "r",
        "um"
      ],
      [
        "Ġ",
        "erg"
      ],
      [
        "ar",
        "bon"
      ],
      [
        "ta",
        "in"
      ],
      [
        "tr",
        "e"
      ],
      [
        "la",
        "ze"
      ],
      [
        "Ġm",
        "ix"
      ],
      [
        "Ġm",
        "eal"
      ],
      [
        "Ġm",
        "ango"
      ],
      [
        "si",
        "c"
      ],
      [
        "Ġg",
        "ranola"
      ],
      [
        "Ġg",
        "laze"
      ],
      [
        "Ġflavor",
        "ed"
      ],
      [
        "Ġv",
        "anil"
      ],
      [
        "oc",
        "alciferol"
      ],
      [
        "ĠS",
        "yrup"
      ],
      [
        "ĠP",
        "at"
      ],
      [
        "ĠP",
        "re"
      ],
      [
        "Ġi",
        "so"
      ],
      [
        "Ġk",
        "os"
      ],
      [
        "ĠPan",
        "cake"
      ],
      [
        "ai",
        "se"
      ],
      [
        "ĠCooki",
        "e"
      ],
      [
        "ĠFlavor",
        "ed"
      ],
      [
        "yr",
        "ate"
      ],
      [
        "ĠDan",
        "non"
      ],
      [
        "onn",
        "aise"
      ],
      [
        "ĠKI",
        "ND"
      ],
      [
        "but",
        "yrate"
      ],
      [
        "Ġerg",
        "ocalciferol"
      ],
      [
        "Ġvanil",
        "lin"
      ],
      [
        "Ġiso",
        "butyrate"
      ],
      [
        "Ġkos",
        "her"
      ],
      [
        "3",
        "7"
      ],
      [
        "L",
        "O"
      ],
      [
        "a",
        "us"
      ],
      [
        "d",
        "ar"
      ],
      [
        "f",
        "ee"
      ],
      [
        "i",
        "um"
      ],
      [
        "t",
        "on"
      ],
      [
        "u",
        "d"
      ],
      [
        "de",
        "n"
      ],
      [
        "Ġa",
        "gar"
      ],
      [
        "Ġb",
        "ic"
      ],
      [
        "ĠC",
        "las"
      ],
      [
        "ĠB",
        "ak"
      ],
      [
        "ĠB",
        "is"
      ],
      [
        "ĠS",
        "n"
      ],
      [
        "ra",
        "c"
      ],
      [
        "ra",
        "ck"
      ],
      [
        "ĠM",
        "ay"
      ],
      [
        "Ġd",
        "ough"
      ],
      [
        "of",
        "fee"
      ],
      [
        "mi",
        "um"
      ],
      [
        "ĠCup",
        "cake"
      ],
      [
        "ĠCooki",
        "es"
      ],
      [
        "gra",
        "pe"
      ],
      [
        "ĠSqu",
        "ee"
      ],
      [
        "arbon",
        "ate"
      ],
      [
        "LO",
        "W"
      ],
      [
        "aus",
        "age"
      ],
      [
        "Ġbic",
        "arbonate"
      ],
      [
        "ĠClas",
        "sic"
      ],
      [
        "ĠBak",
        "ery"
      ],
      [
        "a",
        "se"
      ],
      [
        "s",
        "kim"
      ],
      [
        "s",
        "tant"
      ],
      [
        "al",
        "ly"
      ],
      [
        "ta",
        "n"
      ],
      [
        "er",
        "yl"
      ],
      [
        "Ġc",
        "ake"
      ],
      [
        "ro",
        "us"
      ],
      [
        "arti",
        "ally"
      ],
      [
        "Ġn",
        "ut"
      ],
      [
        "il",
        "i"
      ],
      [
        "Ġw",
        "ine"
      ],
      [
        "Ġb",
        "ul"
      ],
      [
        "to",
        "coph"
      ],
      [
        "ĠIn",
        "stant"
      ],
      [
        "ĠS",
        "of"
      ],
      [
        "ĠS",
        "weet"
      ],
      [
        "ĠS",
        "im"
      ],
      [
        "Ġcon",
        "di"
      ],
      [
        "ĠD",
        "ie"
      ],
      [
        "Ġpe",
        "ach"
      ],
      [
        "Ġmono",
        "sodium"
      ],
      [
        "Ġch",
        "erry"
      ],
      [
        "ĠButter",
        "milk"
      ],
      [
        "ph",
        "a"
      ],
      [
        "Ġfer",
        "rous"
      ],
      [
        "ĠHi",
        "gh"
      ],
      [
        "ĠZ",
        "ero"
      ],
      [
        "ud",
        "ge"
      ],
      [
        "ĠMay",
        "onnaise"
      ],
      [
        "tocoph",
        "eryl"
      ],
      [
        "ĠSof",
        "t"
      ],
      [
        "ĠDie",
        "t"
      ],
      [
        "1",
        "3"
      ],
      [
        "2",
        "9"
      ],
      [
        "3",
        "4"
      ],
      [
        "F",
        "ree"
      ],
      [
        "b",
        "o"
      ],
      [
        "c",
        "u"
      ],
      [
        "c",
        "in"
      ],
      [
        "e",
        "ct"
      ],
      [
        "h",
        "yd"
      ],
      [
        "l",
        "ery"
      ],
      [
        "r",
        "l"
      ],
      [
        "u",
        "se"
      ],
      [
        "z",
        "er"
      ],
      [
        "Ġ",
        "on"
      ],
      [
        "Ġ",
        "ti"
      ],
      [
        "Ġ",
        "es"
      ],
      [
        "al",
        "nut"
      ],
      [
        "an",
        "ch"
      ],
      [
        "ins",
        "en"
      ],
      [
        "se",
        "nce"
      ],
      [
        "ed",
        "dar"
      ],
      [
        "or",
        "es"
      ],
      [
        "ro",
        "p"
      ],
      [
        "Ġo",
        "f"
      ],
      [
        "Ġb",
        "ell"
      ],
      [
        "ĠN",
        "on"
      ],
      [
        "Ġg",
        "reen"
      ],
      [
        "Ġg",
        "insen"
      ],
      [
        "re",
        "me"
      ],
      [
        "Ġcon",
        "den"
      ],
      [
        "Ġ1",
        "4"
      ],
      [
        "ĠM",
        "ustard"
      ],
      [
        "tam",
        "ate"
      ],
      [
        "Ġdi",
        "ester"
      ],
      [
        "it",
        "s"
      ],
      [
        "Ġveg",
        "an"
      ],
      [
        "Ġsorb",
        "ita"
      ],
      [
        "Ġglu",
        "tamate"
      ],
      [
        "ĠR",
        "e"
      ],
      [
        "ĠR",
        "anch"
      ],
      [
        "Ġchi",
        "a"
      ],
      [
        "Ġce",
        "lery"
      ],
      [
        "ĠPe",
        "ach"
      ],
      [
        "ĠCup",
        "cakes"
      ],
      [
        "57",
        "1"
      ],
      [
        "wi",
        "rl"
      ],
      [
        "ĠCru",
        "nch"
      ],
      [
        "Ġcondi",
        "tioner"
      ],
      [
        "ect",
        "ar"
      ],
      [
        "Ġes",
        "sence"
      ],
      [
        "Ġginsen",
        "g"
      ],
      [
        "Ġconden",
        "sed"
      ],
      [
        "Ġsorbita",
        "n"
      ],
      [
        "2",
        "3"
      ],
      [
        "3",
        "0"
      ],
      [
        "3",
        "6"
      ],
      [
        "4",
        "0"
      ],
      [
        "4",
        "6"
      ],
      [
        "7",
        "7"
      ],
      [
        "c",
        "oc"
      ],
      [
        "l",
        "ice"
      ],
      [
        "m",
        "ul"
      ],
      [
        "p",
        "to"
      ],
      [
        "p",
        "eanut"
      ],
      [
        "s",
        "h"
      ],
      [
        "Ġ",
        "9"
      ],
      [
        "Ġ",
        "ther"
      ],
      [
        "ar",
        "d"
      ],
      [
        "ar",
        "in"
      ],
      [
        "gar",
        "ic"
      ],
      [
        "ri",
        "t"
      ],
      [
        "fi",
        "er"
      ],
      [
        "Ġp",
        "artially"
      ],
      [
        "ro",
        "w"
      ],
      [
        "Ġn",
        "ectar"
      ],
      [
        "si",
        "on"
      ],
      [
        "si",
        "fier"
      ],
      [
        "pl",
        "y"
      ],
      [
        "ĠC",
        "hew"
      ],
      [
        "ĠB",
        "o"
      ],
      [
        "ĠF",
        "il"
      ],
      [
        "ĠM",
        "aple"
      ],
      [
        "Ġin",
        "ul"
      ],
      [
        "ĠD",
        "el"
      ],
      [
        "ĠW",
        "il"
      ],
      [
        "mal",
        "titol"
      ],
      [
        "Ġe",
        "mul"
      ],
      [
        "mo",
        "philus"
      ],
      [
        "16",
        "7"
      ],
      [
        "Ġ...",
        ").\"}<|"
      ],
      [
        "au",
        "ce"
      ],
      [
        "Ġtartar",
        "ic"
      ],
      [
        "min",
        "ated"
      ],
      [
        "tre",
        "pto"
      ],
      [
        "Ġbul",
        "garic"
      ],
      [
        "ĠSim",
        "ply"
      ],
      [
        "hyd",
        "r"
      ],
      [
        "coc",
        "cus"
      ],
      [
        "Ġther",
        "mophilus"
      ],
      [
        "ĠChew",
        "y"
      ],
      [
        "Ġinul",
        "in"
      ],
      [
        "Ġemul",
        "sifier"
      ],
      [
        "trepto",
        "coccus"
      ],
      [
        "Ġbulgaric",
        "us"
      ],
      [
        "3",
        "8"
      ],
      [
        "6",
        "9"
      ],
      [
        "c",
        "an"
      ],
      [
        "m",
        "aple"
      ],
      [
        "r",
        "gin"
      ],
      [
        "w",
        "ay"
      ],
      [
        "Ġ",
        "l"
      ],
      [
        "ar",
        "s"
      ],
      [
        "Ġs",
        "or"
      ],
      [
        "Ġs",
        "weet"
      ],
      [
        "ti",
        "ox"
      ],
      [
        "an",
        "t"
      ],
      [
        "Ġp",
        "ineapple"
      ],
      [
        "ĠC",
        "ola"
      ],
      [
        "ĠC",
        "ranberry"
      ],
      [
        "ĠC",
        "akes"
      ],
      [
        "ĠB",
        "lack"
      ],
      [
        "Ġnatural",
        "ly"
      ],
      [
        "ĠS",
        "wirl"
      ],
      [
        "ĠS",
        "lice"
      ],
      [
        "as",
        "corbic"
      ],
      [
        "ĠP",
        "ow"
      ],
      [
        "ĠM",
        "oun"
      ],
      [
        "gh",
        "um"
      ],
      [
        "gly",
        "cer"
      ],
      [
        "ĠD",
        "i"
      ],
      [
        "Ġmal",
        "titol"
      ],
      [
        "ĠL",
        "a"
      ],
      [
        "un",
        "k"
      ],
      [
        "Ġvi",
        "rgin"
      ],
      [
        "Ġal",
        "pha"
      ],
      [
        "Ġch",
        "eddar"
      ],
      [
        "oo",
        "k"
      ],
      [
        "ĠT",
        "rop"
      ],
      [
        "ĠE",
        "x"
      ],
      [
        "id",
        "ant"
      ],
      [
        "ĠAl",
        "l"
      ],
      [
        "eryth",
        "ritol"
      ],
      [
        "ĠWaff",
        "le"
      ],
      [
        "Ġeryth",
        "orb"
      ],
      [
        "ĠCar",
        "amel"
      ],
      [
        "rack",
        "ed"
      ],
      [
        "ĠSquee",
        "ze"
      ],
      [
        "Ġsor",
        "ghum"
      ],
      [
        "tiox",
        "idant"
      ],
      [
        "ĠMoun",
        "tain"
      ],
      [
        "0",
        "9"
      ],
      [
        "a",
        "tam"
      ],
      [
        "h",
        "y"
      ],
      [
        "h",
        "ydro"
      ],
      [
        "l",
        "ine"
      ],
      [
        "o",
        "d"
      ],
      [
        "y",
        "cin"
      ],
      [
        "Ġs",
        "weetened"
      ],
      [
        "an",
        "ylate"
      ],
      [
        "le",
        "ores"
      ],
      [
        "tr",
        "us"
      ],
      [
        "Ġso",
        "lu"
      ],
      [
        "Ġn",
        "atam"
      ],
      [
        "ing",
        "er"
      ],
      [
        "Ġo",
        "leores"
      ],
      [
        "hi",
        "ck"
      ],
      [
        "Ġb",
        "el"
      ],
      [
        "Ġb",
        "acon"
      ],
      [
        "Ġas",
        "corb"
      ],
      [
        "eg",
        "etable"
      ],
      [
        "as",
        "hi"
      ],
      [
        "ĠP",
        "ack"
      ],
      [
        "ĠF",
        "la"
      ],
      [
        "ĠM",
        "r"
      ],
      [
        "Ġin",
        "os"
      ],
      [
        "Ġdi",
        "calcium"
      ],
      [
        "ĠO",
        "n"
      ],
      [
        "ĠO",
        "wn"
      ],
      [
        "Ġmono",
        "ste"
      ],
      [
        "Ġgu",
        "anylate"
      ],
      [
        "Ġe",
        "vaporated"
      ],
      [
        "Ġpoly",
        "glycer"
      ],
      [
        "Ġ3",
        "0"
      ],
      [
        "rink",
        "le"
      ],
      [
        "est",
        "le"
      ],
      [
        "ill",
        "s"
      ],
      [
        "ĠPre",
        "mium"
      ],
      [
        "ĠBis",
        "cu"
      ],
      [
        "tan",
        "ium"
      ],
      [
        "Ġti",
        "tanium"
      ],
      [
        "ĠDel",
        "i"
      ],
      [
        "Ġsolu",
        "ble"
      ],
      [
        "Ġnatam",
        "ycin"
      ],
      [
        "Ġoleores",
        "in"
      ],
      [
        "Ġascorb",
        "ate"
      ],
      [
        "Ġinos",
        "inate"
      ],
      [
        "Ġmonoste",
        "arate"
      ],
      [
        "Ġpolyglycer",
        "ol"
      ],
      [
        "ĠBiscu",
        "its"
      ],
      [
        "2",
        "4"
      ],
      [
        "6",
        "5"
      ],
      [
        "A",
        "R"
      ],
      [
        "B",
        "AR"
      ],
      [
        "a",
        "di"
      ],
      [
        "f",
        "d"
      ],
      [
        "g",
        "er"
      ],
      [
        "m",
        "eg"
      ],
      [
        "o",
        "si"
      ],
      [
        "p",
        "ro"
      ],
      [
        "p",
        "si"
      ],
      [
        "s",
        "in"
      ],
      [
        "Ġ",
        "U"
      ],
      [
        "in",
        "t"
      ],
      [
        "Ġs",
        "auce"
      ],
      [
        "Ġc",
        "rum"
      ],
      [
        "Ġc",
        "racked"
      ],
      [
        "Ġf",
        "ree"
      ],
      [
        "Ġf",
        "rac"
      ],
      [
        "at",
        "ing"
      ],
      [
        "or",
        "m"
      ],
      [
        "ro",
        "lled"
      ],
      [
        "one",
        "st"
      ],
      [
        "Ġb",
        "ro"
      ],
      [
        "ĠN",
        "estle"
      ],
      [
        "ĠC",
        "orn"
      ],
      [
        "ĠB",
        "aking"
      ],
      [
        "th",
        "yl"
      ],
      [
        "ra",
        "y"
      ],
      [
        "ul",
        "p"
      ],
      [
        "ĠO",
        "il"
      ],
      [
        "odi",
        "ak"
      ],
      [
        "Ġ5",
        "2"
      ],
      [
        "ĠH",
        "onest"
      ],
      [
        "ĠR",
        "X"
      ],
      [
        "ĠR",
        "a"
      ],
      [
        "Ġguar",
        "ana"
      ],
      [
        "Ġglycer",
        "ol"
      ],
      [
        "tic",
        "ale"
      ],
      [
        "ĠSp",
        "ray"
      ],
      [
        "ĠPe",
        "psi"
      ],
      [
        "ag",
        "ave"
      ],
      [
        "rystal",
        "line"
      ],
      [
        "Ġtri",
        "ticale"
      ],
      [
        "ĠYo",
        "pla"
      ],
      [
        "ĠHe",
        "alt"
      ],
      [
        "ĠCheese",
        "cake"
      ],
      [
        "ĠSun",
        "b"
      ],
      [
        "ĠMi",
        "O"
      ],
      [
        "Ġte",
        "a"
      ],
      [
        "ĠPur",
        "e"
      ],
      [
        "ook",
        "ed"
      ],
      [
        "ĠTrop",
        "ic"
      ],
      [
        "Ġfrac",
        "tion"
      ],
      [
        "ĠYopla",
        "it"
      ],
      [
        "8",
        "9"
      ],
      [
        "8",
        "46"
      ],
      [
        "C",
        "ro"
      ],
      [
        "a",
        "f"
      ],
      [
        "a",
        "way"
      ],
      [
        "b",
        "arley"
      ],
      [
        "e",
        "at"
      ],
      [
        "p",
        "on"
      ],
      [
        "s",
        "al"
      ],
      [
        "s",
        "ter"
      ],
      [
        "u",
        "ff"
      ],
      [
        "Ġ",
        "ta"
      ],
      [
        "Ġ",
        "he"
      ],
      [
        "Ġ",
        "thin"
      ],
      [
        "ar",
        "ic"
      ],
      [
        "su",
        "l"
      ],
      [
        "Ġf",
        "um"
      ],
      [
        "Ġp",
        "ork"
      ],
      [
        "Ġp",
        "ars"
      ],
      [
        "la",
        "in"
      ],
      [
        "la",
        "ct"
      ],
      [
        "ze",
        "l"
      ],
      [
        "Ġw",
        "alnut"
      ],
      [
        "ĠB",
        "ox"
      ],
      [
        "ĠP",
        "lain"
      ],
      [
        "ĠF",
        "udge"
      ],
      [
        "Ġcar",
        "away"
      ],
      [
        "ĠD",
        "airy"
      ],
      [
        "ĠK",
        "odiak"
      ],
      [
        "Ġro",
        "sin"
      ],
      [
        "av",
        "y"
      ],
      [
        "ĠR",
        "eal"
      ],
      [
        "pe",
        "ar"
      ],
      [
        "Ġun",
        "sal"
      ],
      [
        "ĠMix",
        "ed"
      ],
      [
        "Ġfil",
        "ling"
      ],
      [
        "Ġfro",
        "sting"
      ],
      [
        "ĠSu",
        "p"
      ],
      [
        "Ġinver",
        "t"
      ],
      [
        "pota",
        "to"
      ],
      [
        "ĠCream",
        "y"
      ],
      [
        "ĠHi",
        "dden"
      ],
      [
        "ĠSe",
        "a"
      ],
      [
        "ĠBe",
        "t"
      ],
      [
        "Ġco",
        "ating"
      ],
      [
        "Ġon",
        "ly"
      ],
      [
        "ĠNon",
        "fat"
      ],
      [
        "ĠPow",
        "er"
      ],
      [
        "ĠLa",
        "Cro"
      ],
      [
        "ĠEx",
        "tra"
      ],
      [
        "ĠSunb",
        "elt"
      ],
      [
        "Ġthin",
        "k"
      ],
      [
        "Ġpars",
        "ley"
      ],
      [
        "Ġunsal",
        "ted"
      ],
      [
        "ĠLaCro",
        "ix"
      ],
      [
        "0",
        "5"
      ],
      [
        "3",
        "9"
      ],
      [
        "5",
        "8"
      ],
      [
        "7",
        "14"
      ],
      [
        "8",
        "57"
      ],
      [
        "a",
        "tion"
      ],
      [
        "b",
        "h"
      ],
      [
        "b",
        "ur"
      ],
      [
        "c",
        "ar"
      ],
      [
        "i",
        "g"
      ],
      [
        "t",
        "in"
      ],
      [
        "al",
        "s"
      ],
      [
        "Ġs",
        "pi"
      ],
      [
        "ce",
        "an"
      ],
      [
        "ur",
        "ine"
      ],
      [
        "Ġc",
        "offee"
      ],
      [
        "fi",
        "te"
      ],
      [
        "la",
        "c"
      ],
      [
        "Ġb",
        "it"
      ],
      [
        "ru",
        "lin"
      ],
      [
        "ex",
        "am"
      ],
      [
        "Ġg",
        "rit"
      ],
      [
        "ol",
        "l"
      ],
      [
        "Ġconcentrate",
        "d"
      ],
      [
        "eg",
        "an"
      ],
      [
        "as",
        "s"
      ],
      [
        "as",
        "on"
      ],
      [
        "ĠP",
        "ills"
      ],
      [
        "Ġt",
        "bh"
      ],
      [
        "Ġ1",
        "7"
      ],
      [
        "Ġh",
        "exam"
      ],
      [
        "eta",
        "phosphate"
      ],
      [
        "ĠO",
        "cean"
      ],
      [
        "ot",
        "in"
      ],
      [
        "ĠH",
        "ot"
      ],
      [
        "ĠH",
        "ers"
      ],
      [
        "Ġ2",
        "1"
      ],
      [
        "Ġsp",
        "rinkle"
      ],
      [
        "ff",
        "y"
      ],
      [
        "is",
        "h"
      ],
      [
        "Ġan",
        "tioxidant"
      ],
      [
        "mo",
        "ke"
      ],
      [
        "ĠDrink",
        "s"
      ],
      [
        "ĠSo",
        "ur"
      ],
      [
        "Ġde",
        "ger"
      ],
      [
        "ĠCar",
        "rot"
      ],
      [
        "ĠPo",
        "ta"
      ],
      [
        "Ġbi",
        "otin"
      ],
      [
        "ĠSn",
        "ack"
      ],
      [
        "Ġessence",
        "d"
      ],
      [
        "hydr",
        "ated"
      ],
      [
        "pro",
        "pylene"
      ],
      [
        "ĠRX",
        "BAR"
      ],
      [
        "Ġfraction",
        "ated"
      ],
      [
        "Ġta",
        "urine"
      ],
      [
        "Ġfum",
        "aric"
      ],
      [
        "bur",
        "y"
      ],
      [
        "Ġspi",
        "rulin"
      ],
      [
        "ĠPills",
        "bury"
      ],
      [
        "Ġtbh",
        "q"
      ],
      [
        "Ġhexam",
        "etaphosphate"
      ],
      [
        "ĠHers",
        "hey"
      ],
      [
        "Ġspirulin",
        "a"
      ],
      [
        "4",
        "1"
      ],
      [
        "5",
        "83"
      ],
      [
        "N",
        "A"
      ],
      [
        "U",
        "NA"
      ],
      [
        "V",
        "ita"
      ],
      [
        "c",
        "C"
      ],
      [
        "e",
        "y"
      ],
      [
        "i",
        "ch"
      ],
      [
        "i",
        "bacillus"
      ],
      [
        "m",
        "ent"
      ],
      [
        "o",
        "at"
      ],
      [
        "o",
        "tic"
      ],
      [
        "o",
        "philus"
      ],
      [
        "t",
        "s"
      ],
      [
        "t",
        "u"
      ],
      [
        "y",
        "e"
      ],
      [
        "Ġs",
        "moke"
      ],
      [
        "ri",
        "te"
      ],
      [
        "ce",
        "llulose"
      ],
      [
        "se",
        "l"
      ],
      [
        "fi",
        "du"
      ],
      [
        "Ġp",
        "ie"
      ],
      [
        "or",
        "sel"
      ],
      [
        "ho",
        "use"
      ],
      [
        "ĠN",
        "ew"
      ],
      [
        "ĠA",
        "r"
      ],
      [
        "ĠI",
        "tal"
      ],
      [
        "Ġacid",
        "ophilus"
      ],
      [
        "ĠC",
        "ocoa"
      ],
      [
        "ĠB",
        "lend"
      ],
      [
        "ĠB",
        "acon"
      ],
      [
        "ic",
        "y"
      ],
      [
        "ly",
        "zed"
      ],
      [
        "oc",
        "k"
      ],
      [
        "re",
        "ad"
      ],
      [
        "ĠS",
        "h"
      ],
      [
        "ĠS",
        "i"
      ],
      [
        "ĠS",
        "elt"
      ],
      [
        "ĠS",
        "ausage"
      ],
      [
        "lu",
        "ffy"
      ],
      [
        "Ġci",
        "trus"
      ],
      [
        "Ġ1",
        "3"
      ],
      [
        "ĠF",
        "luffy"
      ],
      [
        "ĠM",
        "a"
      ],
      [
        "ĠM",
        "cC"
      ],
      [
        "Ġpro",
        "ce"
      ],
      [
        "pp",
        "ed"
      ],
      [
        "Ġdi",
        "potassium"
      ],
      [
        "ĠD",
        "ew"
      ],
      [
        "ĠG",
        "reen"
      ],
      [
        "es",
        "an"
      ],
      [
        "ĠL",
        "UNA"
      ],
      [
        "oo",
        "s"
      ],
      [
        "Ġhydro",
        "lyzed"
      ],
      [
        "ĠK",
        "ashi"
      ],
      [
        "Ġpur",
        "Ã"
      ],
      [
        "ĠH",
        "om"
      ],
      [
        "Ġ2",
        "2"
      ],
      [
        "ĠR",
        "ich"
      ],
      [
        "Ġsp",
        "arkling"
      ],
      [
        "Ġchi",
        "ck"
      ],
      [
        "ĠLi",
        "fe"
      ],
      [
        "cur",
        "ed"
      ],
      [
        "ĠFro",
        "sting"
      ],
      [
        "Ġlactic",
        "ase"
      ],
      [
        "Ġcase",
        "i"
      ],
      [
        "arm",
        "esan"
      ],
      [
        "Ġde",
        "hydrated"
      ],
      [
        "Ġmil",
        "led"
      ],
      [
        "ĠBi",
        "r"
      ],
      [
        "fe",
        "c"
      ],
      [
        "ĠHe",
        "art"
      ],
      [
        "Ġbi",
        "fidu"
      ],
      [
        "ĠPat",
        "h"
      ],
      [
        "77",
        "8"
      ],
      [
        "ĠBo",
        "b"
      ],
      [
        "Ġbel",
        "Vita"
      ],
      [
        "thyl",
        "cellulose"
      ],
      [
        "ĠHealt",
        "hy"
      ],
      [
        "Ġhe",
        "avy"
      ],
      [
        "ĠExtra",
        "ct"
      ],
      [
        "Ġdeger",
        "minated"
      ],
      [
        "Ġpie",
        "ce"
      ],
      [
        "ĠItal",
        "ian"
      ],
      [
        "ĠSelt",
        "zer"
      ],
      [
        "Ġlacticase",
        "ibacillus"
      ],
      [
        "Ġbifidu",
        "s"
      ],
      [
        "3",
        "1"
      ],
      [
        "4",
        "5"
      ],
      [
        "8",
        "5"
      ],
      [
        "8",
        "33"
      ],
      [
        "b",
        "ly"
      ],
      [
        "c",
        "rystalline"
      ],
      [
        "f",
        "a"
      ],
      [
        "i",
        "ry"
      ],
      [
        "i",
        "wi"
      ],
      [
        "j",
        "on"
      ],
      [
        "m",
        "el"
      ],
      [
        "o",
        "ol"
      ],
      [
        "o",
        "mi"
      ],
      [
        "p",
        "art"
      ],
      [
        "u",
        "b"
      ],
      [
        "u",
        "di"
      ],
      [
        "y",
        "fi"
      ],
      [
        "ar",
        "i"
      ],
      [
        "Ġs",
        "ausage"
      ],
      [
        "Ġs",
        "treptococcus"
      ],
      [
        "Ġs",
        "af"
      ],
      [
        "ta",
        "ge"
      ],
      [
        "Ġc",
        "ru"
      ],
      [
        "Ġc",
        "ooked"
      ],
      [
        "le",
        "c"
      ],
      [
        "Ġp",
        "armesan"
      ],
      [
        "en",
        "riched"
      ],
      [
        "fal",
        "fa"
      ],
      [
        "to",
        "m"
      ],
      [
        "el",
        "d"
      ],
      [
        "Ġg",
        "inger"
      ],
      [
        "ĠJ",
        "us"
      ],
      [
        "am",
        "omi"
      ],
      [
        "du",
        "l"
      ],
      [
        "ĠC",
        "i"
      ],
      [
        "ĠC",
        "o"
      ],
      [
        "ĠC",
        "ashew"
      ],
      [
        "ĠB",
        "len"
      ],
      [
        "ĠB",
        "est"
      ],
      [
        "re",
        "y"
      ],
      [
        "ĠS",
        "ton"
      ],
      [
        "lu",
        "lose"
      ],
      [
        "as",
        "corb"
      ],
      [
        "ĠP",
        "er"
      ],
      [
        "ĠF",
        "li"
      ],
      [
        "gh",
        "urt"
      ],
      [
        "ĠD",
        "ou"
      ],
      [
        "ve",
        "t"
      ],
      [
        "ĠO",
        "row"
      ],
      [
        "da",
        "iry"
      ],
      [
        "Ġal",
        "falfa"
      ],
      [
        "Ġch",
        "unk"
      ],
      [
        "Ġch",
        "amomi"
      ],
      [
        "ĠH",
        "ou"
      ],
      [
        "ĠT",
        "ri"
      ],
      [
        "ĠT",
        "hick"
      ],
      [
        "ĠT",
        "oll"
      ],
      [
        "Ġglu",
        "con"
      ],
      [
        "ĠR",
        "ye"
      ],
      [
        "ke",
        "y"
      ],
      [
        "ran",
        "ate"
      ],
      [
        "Ġglycer",
        "ine"
      ],
      [
        "ver",
        "age"
      ],
      [
        "ĠPan",
        "cakes"
      ],
      [
        "ba",
        "udi"
      ],
      [
        "ĠPe",
        "pper"
      ],
      [
        "Ġgel",
        "lan"
      ],
      [
        "Ġbu",
        "bly"
      ],
      [
        "ĠCru",
        "st"
      ],
      [
        "ĠGrape",
        "fruit"
      ],
      [
        "Ġblack",
        "berry"
      ],
      [
        "ĠPack",
        "s"
      ],
      [
        "ĠMr",
        "s"
      ],
      [
        "meg",
        "ranate"
      ],
      [
        "osi",
        "de"
      ],
      [
        "Ġfree",
        "ze"
      ],
      [
        "orm",
        "ick"
      ],
      [
        "sul",
        "fite"
      ],
      [
        "lact",
        "obacillus"
      ],
      [
        "ĠPota",
        "to"
      ],
      [
        "ĠMcC",
        "ormick"
      ],
      [
        "ĠHom",
        "es"
      ],
      [
        "Ġchick",
        "en"
      ],
      [
        "mel",
        "on"
      ],
      [
        "yfi",
        "eld"
      ],
      [
        "Ġsaf",
        "flower"
      ],
      [
        "ĠBlen",
        "ded"
      ],
      [
        "ĠSton",
        "yfield"
      ],
      [
        "ascorb",
        "yl"
      ],
      [
        "ĠFli",
        "p"
      ],
      [
        "ĠDou",
        "ble"
      ],
      [
        "ĠOrow",
        "eat"
      ],
      [
        "Ġchamomi",
        "le"
      ],
      [
        "ĠHou",
        "se"
      ],
      [
        "baudi",
        "oside"
      ],
      [
        "A",
        "id"
      ],
      [
        "a",
        "zel"
      ],
      [
        "c",
        "hocolate"
      ],
      [
        "h",
        "am"
      ],
      [
        "i",
        "a"
      ],
      [
        "k",
        "yr"
      ],
      [
        "l",
        "d"
      ],
      [
        "l",
        "ari"
      ],
      [
        "m",
        "y"
      ],
      [
        "u",
        "ck"
      ],
      [
        "©",
        "e"
      ],
      [
        "Ġ",
        "tal"
      ],
      [
        "Ġ",
        "tam"
      ],
      [
        "Ġ",
        "hip"
      ],
      [
        "Ġ",
        "dul"
      ],
      [
        "ar",
        "a"
      ],
      [
        "te",
        "ss"
      ],
      [
        "Ġs",
        "qu"
      ],
      [
        "ta",
        "il"
      ],
      [
        "er",
        "m"
      ],
      [
        "ci",
        "ous"
      ],
      [
        "Ġc",
        "lari"
      ],
      [
        "Ġf",
        "ul"
      ],
      [
        "tr",
        "oly"
      ],
      [
        "la",
        "gen"
      ],
      [
        "Ġn",
        "it"
      ],
      [
        "Ġm",
        "ic"
      ],
      [
        "Ġm",
        "eta"
      ],
      [
        "ĠN",
        "oos"
      ],
      [
        "Ġg",
        "reek"
      ],
      [
        "ol",
        "d"
      ],
      [
        "ol",
        "lagen"
      ],
      [
        "ĠJ",
        "im"
      ],
      [
        "am",
        "ic"
      ],
      [
        "di",
        "c"
      ],
      [
        "ĠC",
        "a"
      ],
      [
        "ĠC",
        "on"
      ],
      [
        "ĠC",
        "aff"
      ],
      [
        "ĠC",
        "oun"
      ],
      [
        "ĠC",
        "reme"
      ],
      [
        "ĠC",
        "ock"
      ],
      [
        "Ġcon",
        "fec"
      ],
      [
        "ra",
        "in"
      ],
      [
        "Ġstar",
        "ter"
      ],
      [
        "ĠP",
        "ulp"
      ],
      [
        "ĠM",
        "ill"
      ],
      [
        "Ġd",
        "airy"
      ],
      [
        "Ġi",
        "od"
      ],
      [
        "ĠD",
        "ough"
      ],
      [
        "ĠD",
        "ani"
      ],
      [
        "ĠO",
        "ld"
      ],
      [
        "ĠL",
        "o"
      ],
      [
        "Ġvitamin",
        "water"
      ],
      [
        "ĠK",
        "ool"
      ],
      [
        "ay",
        "a"
      ],
      [
        "ĠR",
        "o"
      ],
      [
        "pe",
        "a"
      ],
      [
        "ĠV",
        "i"
      ],
      [
        "mal",
        "s"
      ],
      [
        "12",
        "5"
      ],
      [
        "Ġgrape",
        "fruit"
      ],
      [
        "ĠSp",
        "inach"
      ],
      [
        "sti",
        "tu"
      ],
      [
        "ĠGra",
        "ham"
      ],
      [
        "16",
        "3"
      ],
      [
        "11",
        "1"
      ],
      [
        "os",
        "tess"
      ],
      [
        "Ġpap",
        "aya"
      ],
      [
        "14",
        "3"
      ],
      [
        "fe",
        "ct"
      ],
      [
        "ĠEnhan",
        "ced"
      ],
      [
        "lan",
        "dic"
      ],
      [
        "ĠYo",
        "ghurt"
      ],
      [
        "bi",
        "sulfite"
      ],
      [
        "ĠSalt",
        "y"
      ],
      [
        "Ġre",
        "pla"
      ],
      [
        "man",
        "n"
      ],
      [
        "ĠKe",
        "to"
      ],
      [
        "ĠIce",
        "landic"
      ],
      [
        "ard",
        "s"
      ],
      [
        "arin",
        "d"
      ],
      [
        "ĠFil",
        "led"
      ],
      [
        "ĠFil",
        "ling"
      ],
      [
        "ĠWil",
        "d"
      ],
      [
        "ĠWil",
        "ton"
      ],
      [
        "Ġerythorb",
        "ic"
      ],
      [
        "ĠRa",
        "isin"
      ],
      [
        "ĠBox",
        "es"
      ],
      [
        "ĠSup",
        "reme"
      ],
      [
        "ĠBet",
        "ter"
      ],
      [
        "als",
        "amic"
      ],
      [
        "Ġproce",
        "ss"
      ],
      [
        "ĠpurÃ",
        "©e"
      ],
      [
        "lec",
        "troly"
      ],
      [
        "ĠPer",
        "fect"
      ],
      [
        "ĠTri",
        "ple"
      ],
      [
        "Ġglucon",
        "ate"
      ],
      [
        "azel",
        "nut"
      ],
      [
        "Ġtal",
        "low"
      ],
      [
        "Ġtam",
        "arind"
      ],
      [
        "Ġdul",
        "se"
      ],
      [
        "Ġclari",
        "fied"
      ],
      [
        "Ġful",
        "ly"
      ],
      [
        "Ġnit",
        "rite"
      ],
      [
        "Ġmeta",
        "bisulfite"
      ],
      [
        "ĠNoos",
        "a"
      ],
      [
        "ĠCaff",
        "eine"
      ],
      [
        "ĠCock",
        "tail"
      ],
      [
        "Ġiod",
        "ate"
      ],
      [
        "ĠDani",
        "mals"
      ],
      [
        "Ġrepla",
        "cer"
      ],
      [
        "lectroly",
        "te"
      ],
      [
        "2",
        "1"
      ],
      [
        "4",
        "3"
      ],
      [
        "4",
        "7"
      ],
      [
        "4",
        "17"
      ],
      [
        "5",
        "6"
      ],
      [
        "7",
        "2"
      ],
      [
        "8",
        "89"
      ],
      [
        "9",
        "6"
      ],
      [
        "a",
        "o"
      ],
      [
        "b",
        "ili"
      ],
      [
        "c",
        "col"
      ],
      [
        "d",
        "w"
      ],
      [
        "d",
        "y"
      ],
      [
        "d",
        "ough"
      ],
      [
        "e",
        "vaporated"
      ],
      [
        "i",
        "k"
      ],
      [
        "k",
        "es"
      ],
      [
        "l",
        "l"
      ],
      [
        "l",
        "er"
      ],
      [
        "n",
        "ative"
      ],
      [
        "s",
        "er"
      ],
      [
        "s",
        "ted"
      ],
      [
        "s",
        "treptococcus"
      ],
      [
        "t",
        "te"
      ],
      [
        "v",
        "egetable"
      ],
      [
        "x",
        "yl"
      ],
      [
        "Ġ",
        "'"
      ],
      [
        "Ġ",
        "+"
      ],
      [
        "al",
        "ori"
      ],
      [
        "gar",
        "ita"
      ],
      [
        "de",
        "l"
      ],
      [
        "Ġs",
        "ta"
      ],
      [
        "an",
        "berry"
      ],
      [
        "Ġc",
        "ab"
      ],
      [
        "Ġc",
        "ow"
      ],
      [
        "Ġc",
        "ooki"
      ],
      [
        "Ġp",
        "ana"
      ],
      [
        "or",
        "y"
      ],
      [
        "um",
        "ber"
      ],
      [
        "Ġm",
        "ang"
      ],
      [
        "Ġb",
        "ase"
      ],
      [
        "el",
        "p"
      ],
      [
        "ĠN",
        "o"
      ],
      [
        "Ġg",
        "erm"
      ],
      [
        "ĠA",
        "cid"
      ],
      [
        "ĠJ",
        "ew"
      ],
      [
        "ĠC",
        "hi"
      ],
      [
        "ĠC",
        "lu"
      ],
      [
        "ĠC",
        "alcium"
      ],
      [
        "ĠC",
        "offee"
      ],
      [
        "ĠC",
        "alori"
      ],
      [
        "ĠS",
        "m"
      ],
      [
        "ĠS",
        "ara"
      ],
      [
        "ane",
        "se"
      ],
      [
        "ter",
        "native"
      ],
      [
        "as",
        "sion"
      ],
      [
        "ĠP",
        "ineapple"
      ],
      [
        "Ġ1",
        "9"
      ],
      [
        "ĠF",
        "iber"
      ],
      [
        "ĠM",
        "ul"
      ],
      [
        "ĠM",
        "orsel"
      ],
      [
        "pp",
        "y"
      ],
      [
        "Ġh",
        "azelnut"
      ],
      [
        "ĠD",
        "ean"
      ],
      [
        "ĠD",
        "ess"
      ],
      [
        "ĠO",
        "nce"
      ],
      [
        "ĠO",
        "live"
      ],
      [
        "ĠL",
        "ee"
      ],
      [
        "Ġch",
        "ili"
      ],
      [
        "Ġhydro",
        "xide"
      ],
      [
        "Ġk",
        "elp"
      ],
      [
        "Ġro",
        "man"
      ],
      [
        "cr",
        "anberry"
      ],
      [
        "av",
        "a"
      ],
      [
        "ĠT",
        "h"
      ],
      [
        "ĠV",
        "egetable"
      ],
      [
        "Ġe",
        "tho"
      ],
      [
        "Ġe",
        "lectrolyte"
      ],
      [
        "ĠE",
        "dw"
      ],
      [
        "kal",
        "e"
      ],
      [
        "ĠWater",
        "melon"
      ],
      [
        "ĠFro",
        "sted"
      ],
      [
        "ba",
        "ge"
      ],
      [
        "ĠGra",
        "ins"
      ],
      [
        "ĠTo",
        "mato"
      ],
      [
        "22",
        "2"
      ],
      [
        "ĠSe",
        "ed"
      ],
      [
        "Ġtri",
        "glyceride"
      ],
      [
        "ĠBe",
        "ar"
      ],
      [
        "ĠBe",
        "verage"
      ],
      [
        "Ġco",
        "pper"
      ],
      [
        "44",
        "4"
      ],
      [
        "bi",
        "otic"
      ],
      [
        "ĠFood",
        "s"
      ],
      [
        "ĠCrunch",
        "y"
      ],
      [
        "ĠDi",
        "jon"
      ],
      [
        "Ġerythorb",
        "ate"
      ],
      [
        "ĠFla",
        "kes"
      ],
      [
        "ĠDeli",
        "cious"
      ],
      [
        "ĠU",
        "pon"
      ],
      [
        "Ġcrum",
        "b"
      ],
      [
        "ĠTropic",
        "al"
      ],
      [
        "ster",
        "s"
      ],
      [
        "ason",
        "ing"
      ],
      [
        "Ġcru",
        "st"
      ],
      [
        "ĠHomes",
        "tyle"
      ],
      [
        "ĠJim",
        "my"
      ],
      [
        "bili",
        "zer"
      ],
      [
        "ccol",
        "i"
      ],
      [
        "xyl",
        "ated"
      ],
      [
        "Ġsta",
        "bilizer"
      ],
      [
        "Ġcab",
        "bage"
      ],
      [
        "Ġcooki",
        "e"
      ],
      [
        "Ġpana",
        "x"
      ],
      [
        "Ġmang",
        "anese"
      ],
      [
        "ĠJew",
        "ish"
      ],
      [
        "ĠMul",
        "ti"
      ],
      [
        "ĠMorsel",
        "s"
      ],
      [
        "ĠDess",
        "er"
      ],
      [
        "Ġroman",
        "o"
      ],
      [
        "Ġetho",
        "xylated"
      ],
      [
        "ĠEdw",
        "ards"
      ],
      [
        "0",
        "6"
      ],
      [
        "0",
        "8"
      ],
      [
        "4",
        "8"
      ],
      [
        "6",
        "0"
      ],
      [
        "6",
        "38"
      ],
      [
        "7",
        "6"
      ],
      [
        "7",
        "69"
      ],
      [
        "8",
        "0"
      ],
      [
        "9",
        "23"
      ],
      [
        "C",
        "ola"
      ],
      [
        "G",
        "o"
      ],
      [
        "I",
        "F"
      ],
      [
        "L",
        "IF"
      ],
      [
        "M",
        "ilk"
      ],
      [
        "a",
        "in"
      ],
      [
        "b",
        "utter"
      ],
      [
        "b",
        "lue"
      ],
      [
        "c",
        "ap"
      ],
      [
        "c",
        "umber"
      ],
      [
        "d",
        "d"
      ],
      [
        "e",
        "a"
      ],
      [
        "g",
        "re"
      ],
      [
        "g",
        "ian"
      ],
      [
        "h",
        "en"
      ],
      [
        "m",
        "oni"
      ],
      [
        "o",
        "me"
      ],
      [
        "p",
        "oly"
      ],
      [
        "r",
        "ar"
      ],
      [
        "s",
        "trawberry"
      ],
      [
        "u",
        "i"
      ],
      [
        "u",
        "te"
      ],
      [
        "u",
        "icy"
      ],
      [
        "Ġ",
        "/"
      ],
      [
        "Ġ",
        "el"
      ],
      [
        "Ġ",
        "ren"
      ],
      [
        "al",
        "l"
      ],
      [
        "al",
        "an"
      ],
      [
        "al",
        "lulose"
      ],
      [
        "in",
        "ai"
      ],
      [
        "ri",
        "end"
      ],
      [
        "Ġa",
        "p"
      ],
      [
        "an",
        "natto"
      ],
      [
        "Ġc",
        "up"
      ],
      [
        "Ġc",
        "hol"
      ],
      [
        "Ġf",
        "udge"
      ],
      [
        "le",
        "ate"
      ],
      [
        "Ġp",
        "er"
      ],
      [
        "Ġp",
        "uff"
      ],
      [
        "Ġp",
        "hen"
      ],
      [
        "or",
        "ser"
      ],
      [
        "la",
        "ss"
      ],
      [
        "il",
        "d"
      ],
      [
        "Ġm",
        "ass"
      ],
      [
        "Ġo",
        "ther"
      ],
      [
        "red",
        "uced"
      ],
      [
        "hi",
        "rar"
      ],
      [
        "Ġb",
        "y"
      ],
      [
        "Ġb",
        "erry"
      ],
      [
        "to",
        "ck"
      ],
      [
        "el",
        "vet"
      ],
      [
        "ol",
        "ar"
      ],
      [
        "ol",
        "led"
      ],
      [
        "ĠJ",
        "uicy"
      ],
      [
        "am",
        "ia"
      ],
      [
        "ĠC",
        "u"
      ],
      [
        "ĠC",
        "ut"
      ],
      [
        "ĠC",
        "oca"
      ],
      [
        "ĠC",
        "LIF"
      ],
      [
        "ĠB",
        "ai"
      ],
      [
        "ĠB",
        "aked"
      ],
      [
        "re",
        "baudioside"
      ],
      [
        "ĠS",
        "an"
      ],
      [
        "ĠS",
        "pe"
      ],
      [
        "ra",
        "spberry"
      ],
      [
        "tra",
        "sodium"
      ],
      [
        "ter",
        "sweet"
      ],
      [
        "ric",
        "ino"
      ],
      [
        "as",
        "so"
      ],
      [
        "ĠP",
        "olar"
      ],
      [
        "ine",
        "s"
      ],
      [
        "ĠM",
        "on"
      ],
      [
        "ĠM",
        "ach"
      ],
      [
        "Ġh",
        "int"
      ],
      [
        "ac",
        "ad"
      ],
      [
        "ac",
        "ao"
      ],
      [
        "ble",
        "d"
      ],
      [
        "ĠD",
        "e"
      ],
      [
        "ĠD",
        "r"
      ],
      [
        "ĠD",
        "un"
      ],
      [
        "ĠG",
        "lass"
      ],
      [
        "ĠG",
        "hirar"
      ],
      [
        "ĠO",
        "ik"
      ],
      [
        "ĠO",
        "ui"
      ],
      [
        "ĠW",
        "hip"
      ],
      [
        "un",
        "t"
      ],
      [
        "Ġpe",
        "can"
      ],
      [
        "Ġvi",
        "tal"
      ],
      [
        "Ġ5",
        "9"
      ],
      [
        "Ġk",
        "ey"
      ],
      [
        "Ġk",
        "iwi"
      ],
      [
        "Ġli",
        "ve"
      ],
      [
        "ĠH",
        "ostess"
      ],
      [
        "ĠH",
        "ines"
      ],
      [
        "Ġ2",
        "6"
      ],
      [
        "ĠT",
        "ea"
      ],
      [
        "ĠR",
        "ice"
      ],
      [
        "ĠR",
        "olled"
      ],
      [
        "ĠY",
        "asso"
      ],
      [
        "ĠV",
        "egan"
      ],
      [
        "ĠV",
        "inai"
      ],
      [
        "ĠV",
        "elvet"
      ],
      [
        "ap",
        "ric"
      ],
      [
        "mal",
        "low"
      ],
      [
        "ad",
        "y"
      ],
      [
        "Ġpoly",
        "ricino"
      ],
      [
        "ĠPro",
        "biotic"
      ],
      [
        "Ġsulfate",
        "reduced"
      ],
      [
        "Ġra",
        "in"
      ],
      [
        "ĠMar",
        "garita"
      ],
      [
        "ĠPe",
        "ar"
      ],
      [
        "ĠCh",
        "unk"
      ],
      [
        "cor",
        "ation"
      ],
      [
        "ne",
        "t"
      ],
      [
        "ĠAl",
        "ternative"
      ],
      [
        "Ġliqu",
        "id"
      ],
      [
        "ĠChip",
        "s"
      ],
      [
        "Ġdisti",
        "ll"
      ],
      [
        "ĠTo",
        "ast"
      ],
      [
        "ĠTo",
        "asted"
      ],
      [
        "Ġde",
        "coration"
      ],
      [
        "ĠFarm",
        "s"
      ],
      [
        "ĠFarm",
        "house"
      ],
      [
        "ĠSal",
        "ted"
      ],
      [
        "ĠPo",
        "st"
      ],
      [
        "ĠCoconut",
        "Milk"
      ],
      [
        "ĠFlavor",
        "s"
      ],
      [
        "ĠMi",
        "rac"
      ],
      [
        "Ġte",
        "trasodium"
      ],
      [
        "ĠKe",
        "y"
      ],
      [
        "der",
        "berry"
      ],
      [
        "ĠPat",
        "ch"
      ],
      [
        "sh",
        "mallow"
      ],
      [
        "09",
        "1"
      ],
      [
        "hydro",
        "genated"
      ],
      [
        "adi",
        "sh"
      ],
      [
        "Ġcrum",
        "ble"
      ],
      [
        "Ġbro",
        "minated"
      ],
      [
        "Ġbro",
        "ccoli"
      ],
      [
        "ĠTropic",
        "ana"
      ],
      [
        "lac",
        "tic"
      ],
      [
        "ĠJus",
        "t"
      ],
      [
        "Ġmic",
        "ro"
      ],
      [
        "ĠCoun",
        "try"
      ],
      [
        "Ġconfec",
        "tioner"
      ],
      [
        "ĠVi",
        "tamin"
[...]
